{"<s>":0,"<pad>":1,"</s>":2,"<unk>":3,"<mask>":4,"[UNUSED-0]":5,"[UNUSED-1]":6,"[UNUSED-2]":7,"[UNUSED-3]":8,"[UNUSED-4]":9,"[UNUSED-5]":10,"[UNUSED-6]":11,"[UNUSED-7]":12,"[UNUSED-8]":13,"[UNUSED-9]":14,"[UNUSED-10]":15,"[UNUSED-11]":16,"[UNUSED-12]":17,"[UNUSED-13]":18,"[UNUSED-14]":19,"[UNUSED-15]":20,"[UNUSED-16]":21,"[UNUSED-17]":22,"[UNUSED-18]":23,"[UNUSED-19]":24,"[UNUSED-20]":25,"[UNUSED-21]":26,"[UNUSED-22]":27,"[UNUSED-23]":28,"[UNUSED-24]":29,"[UNUSED-25]":30,"[UNUSED-26]":31,"[UNUSED-27]":32,"[UNUSED-28]":33,"[UNUSED-29]":34,"[UNUSED-30]":35,"[UNUSED-31]":36,"[UNUSED-32]":37,"[UNUSED-33]":38,"[UNUSED-34]":39,"[UNUSED-35]":40,"[UNUSED-36]":41,"[UNUSED-37]":42,"[UNUSED-38]":43,"[UNUSED-39]":44,"[UNUSED-40]":45,"[UNUSED-41]":46,"[UNUSED-42]":47,"[UNUSED-43]":48,"[UNUSED-44]":49,"[UNUSED-45]":50,"[UNUSED-46]":51,"[UNUSED-47]":52,"[UNUSED-48]":53,"[UNUSED-49]":54,"!":55,"\"":56,"#":57,"$":58,"%":59,"&":60,"'":61,"(":62,")":63,"*":64,"+":65,",":66,"-":67,".":68,"/":69,"0":70,"1":71,"2":72,"3":73,"4":74,"5":75,"6":76,"7":77,"8":78,"9":79,":":80,";":81,"<":82,"=":83,">":84,"?":85,"@":86,"A":87,"B":88,"C":89,"D":90,"E":91,"F":92,"G":93,"H":94,"I":95,"J":96,"K":97,"L":98,"M":99,"N":100,"O":101,"P":102,"Q":103,"R":104,"S":105,"T":106,"U":107,"V":108,"W":109,"X":110,"Y":111,"Z":112,"[":113,"\\":114,"]":115,"^":116,"_":117,"`":118,"a":119,"b":120,"c":121,"d":122,"e":123,"f":124,"g":125,"h":126,"i":127,"j":128,"k":129,"l":130,"m":131,"n":132,"o":133,"p":134,"q":135,"r":136,"s":137,"t":138,"u":139,"v":140,"w":141,"x":142,"y":143,"z":144,"{":145,"|":146,"}":147,"~":148,"¡":149,"¢":150,"£":151,"¤":152,"¥":153,"¦":154,"§":155,"¨":156,"©":157,"ª":158,"«":159,"¬":160,"®":161,"¯":162,"°":163,"±":164,"²":165,"³":166,"´":167,"µ":168,"¶":169,"·":170,"¸":171,"¹":172,"º":173,"»":174,"¼":175,"½":176,"¾":177,"¿":178,"À":179,"Á":180,"Â":181,"Ã":182,"Ä":183,"Å":184,"Æ":185,"Ç":186,"È":187,"É":188,"Ê":189,"Ë":190,"Ì":191,"Í":192,"Î":193,"Ï":194,"Ð":195,"Ñ":196,"Ò":197,"Ó":198,"Ô":199,"Õ":200,"Ö":201,"×":202,"Ø":203,"Ù":204,"Ú":205,"Û":206,"Ü":207,"Ý":208,"Þ":209,"ß":210,"à":211,"á":212,"â":213,"ã":214,"ä":215,"å":216,"æ":217,"ç":218,"è":219,"é":220,"ê":221,"ë":222,"ì":223,"í":224,"î":225,"ï":226,"ð":227,"ñ":228,"ò":229,"ó":230,"ô":231,"õ":232,"ö":233,"÷":234,"ø":235,"ù":236,"ú":237,"û":238,"ü":239,"ý":240,"þ":241,"ÿ":242,"Ā":243,"ā":244,"Ă":245,"ă":246,"Ą":247,"ą":248,"Ć":249,"ć":250,"Ĉ":251,"ĉ":252,"Ċ":253,"ċ":254,"Č":255,"č":256,"Ď":257,"ď":258,"Đ":259,"đ":260,"Ē":261,"ē":262,"Ĕ":263,"ĕ":264,"Ė":265,"ė":266,"Ę":267,"ę":268,"Ě":269,"ě":270,"Ĝ":271,"ĝ":272,"Ğ":273,"ğ":274,"Ġ":275,"ġ":276,"Ģ":277,"ģ":278,"Ĥ":279,"ĥ":280,"Ħ":281,"ħ":282,"Ĩ":283,"ĩ":284,"Ī":285,"ī":286,"Ĭ":287,"ĭ":288,"Į":289,"į":290,"İ":291,"ı":292,"Ĳ":293,"ĳ":294,"Ĵ":295,"ĵ":296,"Ķ":297,"ķ":298,"ĸ":299,"Ĺ":300,"ĺ":301,"Ļ":302,"ļ":303,"Ľ":304,"ľ":305,"Ŀ":306,"ŀ":307,"Ł":308,"ł":309,"Ń":310,"Ġd":311,"Ġe":312,"Ġde":313,"Ġl":314,"os":315,"Ġp":316,"Ġc":317,"en":318,"er":319,"Ġa":320,"es":321,"ar":322,"as":323,"on":324,"ci":325,"Ġs":326,"or":327,"an":328,"ad":329,"ue":330,"al":331,"Ġla":332,"Ġm":333,"Ġen":334,"Ã³":335,"que":336,"un":337,"re":338,"ti":339,"in":340,"Ġque":341,"Ġy":342,"te":343,"Ġel":344,"ta":345,"tr":346,"Ġes":347,"Ã³n":348,"to":349,"Ġcon":350,"ÃŃ":351,"Ã¡":352,"Ġh":353,"id":354,"Ġun":355,"Ġn":356,"is":357,"om":358,"ic":359,"ciÃ³n":360,"Ġse":361,"Ġf":362,"Ġv":363,"Ġlos":364,"ro":365,"do":366,"ado":367,"Ġpar":368,"Ġdel":369,"Ġre":370,"le":371,"am":372,"Ġsu":373,"Ġin":374,"Ġo":375,"Ã©":376,"ol":377,"tu":378,"ĠC":379,"Ġha":380,"res":381,"ien":382,"Ġpor":383,"Ġcom":384,"Ã±":385,"im":386,"Ġlas":387,"ra":388,"Ġal":389,"ec":390,"il":391,"aciÃ³n":392,"Ġg":393,"Ġpara":394,"ĠP":395,"io":396,"Ġb":397,"ter":398,"ÃŃa":399,"ĠA":400,"cion":401,"ab":402,"Ġno":403,"ĠM":404,"Ġuna":405,"ĠE":406,"la":407,"tos":408,"ten":409,"em":410,"Ġpro":411,"ente":412,"qu":413,"tar":414,"ĠS":415,"ia":416,"cu":417,"lo":418,"..":419,"ig":420,"ir":421,"us":422,"ed":423,"Ã¡s":424,"idad":425,"Ġtr":426,"Ġcu":427,"ada":428,"cia":429,"Ġdes":430,"Ãº":431,"ch":432,"Ġper":433,"el":434,"tes":435,"ier":436,"tor":437,"pa":438,"iz":439,"tiv":440,"ca":441,"Ġlo":442,"ici":443,"tan":444,"ur":445,"ib":446,"Ġac":447,"ĠL":448,"Ġto":449,"tas":450,"ma":451,"da":452,"Ġex":453,"El":454,"iv":455,"ciones":456,"Ġpr":457,"ues":458,"Ġ\"":459,"ales":460,"ĠD":461,"ob":462,"ĠG":463,"ul":464,"ĠR":465,"Ġcomo":466,"ĠmÃ¡s":467,"co":468,"Ã¡n":469,"ica":470,"ido":471,"ĠB":472,"Ġ(":473,"od":474,"tal":475,"tra":476,"ados":477,"go":478,"mp":479,"Ġ2":480,"Ġ1":481,"ĠT":482,"se":483,"aj":484,"ando":485,"Ġti":486,"Ġj":487,"tro":488,"era":489,"mo":490,"po":491,"ios":492,"ĠI":493,"Ġan":494,"Ġmu":495,"La":496,"iÃ³n":497,"tam":498,"Ġser":499,"ĠF":500,"ez":501,"Ġres":502,"Ġme":503,"ce":504,"ud":505,"ero":506,"gu":507,"ran":508,"Ġsi":509,"Ġte":510,"ico":511,"Ġest":512,"if":513,"Ġesta":514,"orm":515,"ĠV":516,"iento":517,"bl":518,"Ġpre":519,"par":520,"ador":521,"...":522,"por":523,"pe":524,"Ġr":525,"ĠJ":526,"bi":527,"paÃ±":528,"Ġsus":529,"Ġdis":530,"uc":531,"Ġle":532,"Ġeste":533,"oci":534,"00":535,"tre":536,"ida":537,"ĠaÃ±":538,"Es":539,"per":540,"av":541,"Ġim":542,"Ġcons":543,"end":544,"Ã©n":545,"En":546,"ĠEs":547,"Ġpres":548,"um":549,"Ġma":550,"encia":551,"no":552,"Ġas":553,"ĠN":554,"Ġqu":555,"ri":556,"ante":557,"di":558,"na":559,"dos":560,"Ã©s":561,"con":562,"Ġten":563,"ion":564,"cer":565,"enta":566,"uev":567,"Ġpue":568,"ga":569,"Ġpa":570,"ara":571,"br":572,"emos":573,"tado":574,"obre":575,"Ġca":576,"adas":577,"los":578,"gun":579,"Ġsin":580,"tros":581,"Ġar":582,"Ġtu":583,"ĠH":584,"Ãºn":585,"pon":586,"ru":587,"Ġsobre":588,"ens":589,"Ġman":590,"cl":591,"aliz":592,"pl":593,"dad":594,"ana":595,"Ġpas":596,"Ġcas":597,"Ġdi":598,"son":599,"Ġemp":600,"gr":601,"amos":602,"za":603,"ĠU":604,"gar":605,"ces":606,"cias":607,"ĠO":608,"ora":609,"las":610,"Ġinter":611,"Ġparti":612,"les":613,"pos":614,"ven":615,"ÃŃs":616,"Ġpod":617,"uer":618,"Ġentre":619,"Ġinf":620,"Ġpued":621,"Ġcam":622,"Ġpero":623,"ers":624,"it":625,"Ġmed":626,"ores":627,"Ġad":628,"eg":629,"ba":630,"Ġlle":631,"tic":632,"Ġhan":633,"ista":634,"Ġtien":635,"Ġnuev":636,"ismo":637,"amente":638,"ario":639,"Ġprim":640,"mente":641,"Ġperson":642,"lan":643,"Ġson":644,"ento":645,"bre":646,"Ġya":647,"Ġ20":648,"ie":649,"rec":650,"Ġor":651,"alidad":652,"Ġnues":653,"Ġmar":654,"Ġfin":655,"tin":656,"ĠIn":657,"Ġsol":658,"tica":659,"tivo":660,"ias":661,"biÃ©n":662,"Ġcar":663,"Ġver":664,"Ġtodo":665,"entes":666,"pres":667,"ech":668,"\",":669,"Ġco":670,"\".":671,"ble":672,"ĠaÃ±os":673,"orma":674,"tras":675,"duc":676,"Ġsal":677,"ac":678,"lar":679,"Ġcomp":680,"tura":681,"ena":682,"Ġnos":683,"Ġap":684,"ÃŃn":685,"ano":686,"Ġob":687,"Ġpos":688,"Ġcre":689,"oc":690,"til":691,"Ġcor":692,"esti":693,"ÃŃas":694,"min":695,"abaj":696,"oy":697,"ĠestÃ¡":698,"Ġmuch":699,"Ġins":700,"ras":701,"paÃ±a":702,"Ġt":703,"Ġam":704,"Ġtrabaj":705,"eb":706,"Ġdesd":707,"je":708,"Ġmej":709,"Ġ-":710,"Ġdesde":711,"Ġtam":712,"Los":713,"pu":714,"cio":715,"Ġ3":716,"Ġau":717,"Ġab":718,"Ġtan":719,"Ġdeb":720,"cional":721,"eces":722,"ina":723,"Ġdos":724,"ita":725,"Ġof":726,"Ġmuy":727,"mas":728,"Â¿":729,"asta":730,"ĠCon":731,"icos":732,"Ġhay":733,"jo":734,"com":735,"igu":736,"Ġmi":737,"ĠtambiÃ©n":738,"ona":739,"Ġpol":740,"idos":741,"pues":742,"uro":743,"entar":744,"Ġhab":745,"ener":746,"Ġus":747,"uel":748,"Ġesc":749,"das":750,"gan":751,"Ġsoci":752,"ver":753,"og":754,"ones":755,"car":756,"des":757,"jer":758,"Ġ201":759,"Ġni":760,"Ġmun":761,"tiva":762,"enti":763,"Ġgran":764,"mos":765,"udad":766,"itar":767,"Ã±o":768,"Ġter":769,"Ġreg":770,"ĠAl":771,"iendo":772,"cip":773,"Ġ'":774,"iudad":775,"ĠMar":776,"eo":777,"Ġpo":778,"icaciÃ³n":779,"ea":780,"ond":781,"Ġmo":782,"pi":783,"Ġtodos":784,"Ġmen":785,"Ġparte":786,"Por":787,"mi":788,"ja":789,"Ġind":790,"Ġmay":791,"icio":792,"lam":793,"Ġlu":794,"Ġempres":795,"Ġhasta":796,"ĠSan":797,"iciÃ³n":798,"iente":799,"so":800,"tico":801,"adr":802,"emp":803,"Ġinform":804,"iones":805,"quier":806,"Ġcan":807,"ĠEspaÃ±a":808,"Ġcontra":809,"erv":810,"idades":811,"man":812,"ill":813,"Ġactu":814,"istas":815,"Ġtra":816,"Ġinv":817,"ĠDE":818,"Ġtiene":819,"titu":820,"Ãºl":821,"obier":822,"aba":823,"arÃ¡":824,"pec":825,"adores":826,"cial":827,"edad":828,"qui":829,"arios":830,"du":831,"ĠRe":832,"ub":833,"ĠaÃ±o":834,"Ġpuede":835,"No":836,"Ġref":837,"Ġda":838,"icas":839,"Ġmejor":840,"Ġcol":841,"fec":842,"Ġserv":843,"gen":844,"Ġcuando":845,"Ġtras":846,"Ġfue":847,"),":848,"Ãºlti":849,"cur":850,"cha":851,"vo":852,"Ġhacer":853,"tÃ³":854,"Ġdeci":855,"toria":856,"zo":857,"ve":858,"ĠLa":859,"Ãºbl":860,"Ġdirec":861,"can":862,"eros":863,"ĠUn":864,"obierno":865,"tur":866,"ĠCom":867,"Ġneces":868,"Ġdif":869,"der":870,"Ġfu":871,"ivers":872,"tir":873,"ton":874,"Ġna":875,"ĠAn":876,"OS":877,"unto":878,"iste":879,"tados":880,"teri":881,"Ġgra":882,"Ġcal":883,"ER":884,"Con":885,"Ã±a":886,"Ġpu":887,"urante":888,"nos":889,"gÃºn":890,"ĠÃºlti":891,"Ġforma":892,"onde":893,"adrid":894,"Ġcual":895,"uen":896,"cn":897,"Ġconf":898,"ord":899,"Ġcos":900,"Ġpla":901,"Ġcen":902,"ay":903,"ES":904,"Ġmis":905,"Ġvis":906,"tante":907,"Ã³m":908,"Ġw":909,"Ġfun":910,"Ġlib":911,"vis":912,"cal":913,"arro":914,"ele":915,"paÃ±ol":916,"Ġcl":917,"ible":918,"able":919,"ĠdÃŃa":920,"Ġporque":921,"Ġ4":922,"tivos":923,"xim":924,"Ġelec":925,"Ġacu":926,"ies":927,"et":928,"Ġalgun":929,"den":930,"ced":931,"ÃŃcu":932,"Ġdic":933,"Ġciudad":934,"Ġdonde":935,"Ã©r":936,"anos":937,"ama":938,"Ġvez":939,"Ġrealiz":940,"eci":941,"ilidad":942,"ino":943,"ĠpolÃŃ":944,"Ġtiem":945,").":946,"Ġah":947,"taciÃ³n":948,"cas":949,"ĠÂ":950,"ĠEl":951,"Ġreci":952,"Ġmes":953,"yec":954,"icios":955,"Ġcada":956,"Si":957,"emÃ¡s":958,"Ġpersonas":959,"Ġcomun":960,"Ġbien":961,"Ġespe":962,"ÃŃan":963,"Se":964,"Ġsec":965,"Ġay":966,"ef":967,"idas":968,"Ġpe":969,"rÃ¡":970,"aron":971,"Ġ5":972,"Ġsido":973,"ĠasÃŃ":974,"Ġestu":975,"ep":976,"âĢ":977,"Ġcr":978,"Ġllev":979,"antes":980,"Ġhace":981,"Ġform":982,"almente":983,"ans":984,"arse":985,"Ġimpor":986,"Ġhis":987,"icado":988,"ito":989,"ĠMadrid":990,"Ġprof":991,"Ġju":992,"Ġuno":993,"Ġcer":994,"Ġgener":995,"gos":996,"endo":997,"Ġch":998,"Ġmod":999,"vi":1000,"Ġincl":1001,"lec":1002,"Ġsig":1003,"tel":1004,"Ġop":1005,"miento":1006,"cil":1007,"ĠW":1008,"entos":1009,"istr":1010,"Ġval":1011,"uciÃ³n":1012,"uros":1013,"Las":1014,"Ġ|":1015,"EN":1016,"aciones":1017,"uy":1018,"tis":1019,"ĠpÃºbl":1020,"Ġmayor":1021,"Ġem":1022,"Ġid":1023,"AS":1024,"Ġsegu":1025,"Ġden":1026,"Ġprop":1027,"Ġdere":1028,"Ġro":1029,"Ġtiempo":1030,"Ġproduc":1031,"Ġu":1032,"ĠespaÃ±ol":1033,"cel":1034,"AR":1035,"ĠEuro":1036,"arrol":1037,"illa":1038,"Ġpues":1039,"Ġsab":1040,"Ġdef":1041,"CI":1042,"ĠÃ©":1043,"Ġviv":1044,"Ġdurante":1045,"Al":1046,"amiento":1047,"ticas":1048,"Ã±os":1049,"Ġ19":1050,"Ġequi":1051,"ĠAr":1052,"idente":1053,"ala":1054,"ĠestÃ¡n":1055,"Ġweb":1056,"mpl":1057,"Ġentr":1058,"Ġcaso":1059,"me":1060,"Ġhech":1061,"cin":1062,"Ġfal":1063,"incip":1064,"Ġhor":1065,"Ġmismo":1066,"gur":1067,"ON":1068,"Ġnuevo":1069,"iÃ³":1070,"Ġotros":1071,"Ġpubl":1072,"Ġmom":1073,"tores":1074,"Un":1075,"ientos":1076,"Ġmundo":1077,"Ġvida":1078,"unque":1079,"ĠCar":1080,"ĠGobierno":1081,"Ġencu":1082,"Ġne":1083,"Ġplan":1084,"pul":1085,"cho":1086,"Ġmin":1087,"Ġestar":1088,"ĠpaÃŃs":1089,"ern":1090,"Ġproyec":1091,"ientes":1092,"Ġva":1093,"Ãºs":1094,"Ġfuer":1095,"empre":1096,"omo":1097,"Ġconten":1098,"eno":1099,"ard":1100,"rib":1101,"tamiento":1102,"Para":1103,"puÃ©s":1104,"Ġpon":1105,"Ġmill":1106,"De":1107,"icar":1108,"Ġtanto":1109,"Ġprincip":1110,"Ġmenos":1111,"gres":1112,"Ġtres":1113,"Ġquier":1114,"imiento":1115,"Ġaf":1116,"cios":1117,"Ġve":1118,"Ġprofes":1119,"Ġcuenta":1120,"Ġ#":1121,"Ġtoda":1122,"Ġtrabajo":1123,"AL":1124,"ares":1125,"ĠY":1126,"Ġlugar":1127,"Ġgru":1128,"Ġcontr":1129,"Ġdesarrol":1130,"izaciÃ³n":1131,"ĠVal":1132,"Ġexpres":1133,"Ġbas":1134,"Ġ6":1135,"Ġcualquier":1136,"Ġdej":1137,"Ġles":1138,"Ġ@":1139,"Ġcab":1140,"ĠCa":1141,"Ġtrans":1142,"Ġfr":1143,"Ġra":1144,"ine":1145,"ĠCas":1146,"ticos":1147,"Ġbaj":1148,"ece":1149,"Ã³lo":1150,"AN":1151,"cor":1152,"tamente":1153,"Ġprimera":1154,"rend":1155,"Ġeuros":1156,"Ġestos":1157,"Ġactiv":1158,"tido":1159,"000":1160,"ĠinformaciÃ³n":1161,"Ġante":1162,"zar":1163,"amil":1164,"ĠLe":1165,"Ġprimer":1166,"Ġorgan":1167,"OR":1168,"aria":1169,"ial":1170,"Ġsub":1171,"Ġapar":1172,"ceso":1173,"Ġev":1174,"ĠK":1175,"ĠBar":1176,"Ġresul":1177,"teg":1178,"Ġvo":1179,"Ġnuestro":1180,"und":1181,"Ġsitu":1182,"Ġprogr":1183,"jos":1184,"men":1185,"Ġej":1186,"cre":1187,"and":1188,"bar":1189,"Ġsiempre":1190,"che":1191,"Ġvol":1192,"contr":1193,"ing":1194,"Ġdifer":1195,"tac":1196,"truc":1197,"mar":1198,"Ġmillones":1199,"cen":1200,"Qu":1201,"tad":1202,"tantes":1203,"Ġmucho":1204,"Ġmujer":1205,"Ġencuen":1206,"Ġahora":1207,"Ġpasado":1208,"ombre":1209,"eza":1210,"ĠPar":1211,"Des":1212,"Â»":1213,"Ġsolo":1214,"aje":1215,"Ġotro":1216,"Ġsuper":1217,"Ġmer":1218,"Ġutil":1219,"Ġllam":1220,"embre":1221,"isten":1222,"Ġnoti":1223,"Ġtodas":1224,"Ġsegun":1225,"Ġpoder":1226,"tamos":1227,"Ġtar":1228,"ĠÃ¡":1229,"Ġrespon":1230,"tÃ¡":1231,"wit":1232,"Ġera":1233,"In":1234,"Ġgan":1235,"Ġobje":1236,"quÃŃ":1237,"fer":1238,"ura":1239,"!!":1240,"Ġz":1241,"Ġnuestra":1242,"ĠdÃŃas":1243,"Ġtrav":1244,"Ġmomento":1245,"Ġhecho":1246,"Ġher":1247,"Ġpodr":1248,"Ġexper":1249,"Ġinten":1250,"Ġpl":1251,"ĠZ":1252,"Ġproble":1253,"ros":1254,"olog":1255,"AD":1256,"ecu":1257,"Ġsocial":1258,"Ġcele":1259,"Ġecon":1260,"Ġta":1261,"laciÃ³n":1262,"Ġred":1263,"Ġ200":1264,"Ġcomple":1265,"Ġcul":1266,"ĠEn":1267,"ĠAs":1268,"20":1269,"Ġ[":1270,"Ġexpl":1271,"Ġrela":1272,"Ġencontr":1273,"posiciÃ³n":1274,"ĠCh":1275,"erÃŃa":1276,"Ã©cn":1277,"ĠdespuÃ©s":1278,"Ġunos":1279,"pro":1280,"Ġsigu":1281,"Ġbuen":1282,"omin":1283,"Ġsem":1284,"tando":1285,"igo":1286,"fici":1287,"As":1288,"ieron":1289,"Ġhoy":1290,"ĠprÃ³":1291,"Ġantes":1292,"sa":1293,"Ġsiste":1294,"Ġmon":1295,"witter":1296,"uso":1297,"Ġpes":1298,"Ġ7":1299,"Ãģ":1300,"Ġtener":1301,"erg":1302,"Ġempresa":1303,"yo":1304,"Ġese":1305,"Ġbus":1306,"ĠX":1307,"ocu":1308,"tt":1309,"Ġrecib":1310,"Ġfamil":1311,"Ġotras":1312,"Ġinvesti":1313,"ĠtravÃ©s":1314,"va":1315,"segu":1316,"Ġeso":1317,"Ġpermi":1318,"Ġdatos":1319,"SO":1320,"ĠsegÃºn":1321,"ya":1322,"Pero":1323,"Ġjue":1324,"Ġquien":1325,"gua":1326,"Ġconv":1327,"Ġhi":1328,"Ã³mo":1329,"iencia":1330,"fr":1331,"ho":1332,"ior":1333,"Ġaunque":1334,"Ġhoras":1335,"tivas":1336,"Ġesto":1337,"ĠPro":1338,"tec":1339,"cidad":1340,"Ġcontin":1341,"abor":1342,"atro":1343,"Ã³g":1344,"arias":1345,"Ġpartido":1346,"uda":1347,"Una":1348,"ĠprÃ³xim":1349,"ĠquÃ©":1350,"Ġsea":1351,"Ġofre":1352,"leg":1353,"Ġir":1354,"ĠserÃ¡":1355,"Ġalgo":1356,"Ġequipo":1357,"ww":1358,"tada":1359,"Ġven":1360,"Ġmas":1361,"Ġpresidente":1362,"quel":1363,"cado":1364,"icip":1365,"Ġapro":1366,"Ġnueva":1367,"cos":1368,"Ġ8":1369,"tural":1370,"Ġcomentar":1371,"Ġtemp":1372,"Ġtipo":1373,"Ã¡c":1374,"Ġqued":1375,"oto":1376,"Ġmedio":1377,"van":1378,"ĠPa":1379,"Ġpoco":1380,"Ġdar":1381,"Ġcamb":1382,"bo":1383,"gra":1384,"isiÃ³n":1385,"Ġtienen":1386,"Ġpueden":1387,"Ġotra":1388,"ĠPP":1389,"//":1390,"Ġtend":1391,"Ġconsid":1392,"ĠMa":1393,"Ġgu":1394,"Ad":1395,"Ġgus":1396,"Ġhistoria":1397,"Ġcur":1398,"ensa":1399,"Ġcompr":1400,"ĠNa":1401,"ustr":1402,"ĠSe":1403,"Ġautor":1404,"Ġtotal":1405,"omb":1406,"erdo":1407,"log":1408,"zas":1409,"ttp":1410,"Ġtal":1411,"Ġpel":1412,"ĠseÃ±":1413,"aran":1414,"Ġestas":1415,"Ġservicio":1416,"ĠsÃ³lo":1417,"ÃŃo":1418,"://":1419,"Ġprev":1420,"Ġamb":1421,"ha":1422,"....":1423,"gado":1424,"Ġapl":1425,"cep":1426,"Ġrecu":1427,"terior":1428,"ĠademÃ¡s":1429,"Ġellos":1430,"ientras":1431,"Ġgrupo":1432,"pital":1433,"âĢĵ":1434,"cis":1435,"Este":1436,"Ġmal":1437,"unci":1438,"Ãºm":1439,"cul":1440,"icia":1441,"Ġvi":1442,"ĠEuropa":1443,"ĠCo":1444,"Ġhum":1445,"Ġart":1446,"chos":1447,"Ġapo":1448,"ola":1449,"Ġfinal":1450,"Ġesp":1451,"ĠÂ«":1452,"orn":1453,"IC":1454,"Ġempresas":1455,"untos":1456,"torio":1457,"Ġutiliz":1458,"icaciones":1459,"Ġ9":1460,"Ġsemana":1461,"vil":1462,"arra":1463,"ĠDi":1464,"Â¡":1465,"ĠÃºn":1466,"Ġba":1467,"sos":1468,"ĠhabÃŃa":1469,"tidad":1470,"ĠJos":1471,"Ġ10":1472,"ĠJu":1473,"Cu":1474,"Ġcompar":1475,"ĠtÃ©cn":1476,"ĠCan":1477,"ari":1478,"tera":1479,"Ġmil":1480,"Ġnin":1481,"Ġrepres":1482,"Ġcier":1483,"Ġsenti":1484,"Ġaquel":1485,"ĠÂ¿":1486,"Ġesa":1487,"Ġnada":1488,"anza":1489,"Ġprov":1490,"ĠAy":1491,"Ġnav":1492,"Ġespecial":1493,"dal":1494,"Ġhabl":1495,"Ġcomer":1496,"ĠMan":1497,"Ġhaber":1498,"Ġestado":1499,"Ġservicios":1500,"Ġyo":1501,"ent":1502,"Ġag":1503,"ex":1504,"Ġconoci":1505,"Ġmad":1506,"ĠsÃŃ":1507,"Ġinteres":1508,"Ġpens":1509,"Ġrecon":1510,"ĠInter":1511,"Ġproyecto":1512,"duci":1513,"avor":1514,"ide":1515,"untamiento":1516,"Ġedi":1517,"ĠGu":1518,"ge":1519,"Ġsino":1520,"imos":1521,"Ġprofesion":1522,"SOE":1523,"ban":1524,"Ġefec":1525,"ĠnÃºm":1526,"bol":1527,"unta":1528,"Ġusu":1529,"Ġcasa":1530,"cular":1531,"ell":1532,"Ġsan":1533,"Ġcin":1534,"ĠcompaÃ±":1535,"Ġsim":1536,"Ġsistema":1537,"entaciÃ³n":1538,"ris":1539,"Ġdir":1540,"Esta":1541,"Ġaten":1542,"Ġrespons":1543,"Lo":1544,"ivel":1545,"ÃŃf":1546,"turas":1547,"Ġleg":1548,"Ġdecir":1549,"aban":1550,"ome":1551,"ÃŃd":1552,"ĠDe":1553,"Ġgeneral":1554,"encias":1555,"Ġcono":1556,"puesto":1557,"Ġpal":1558,"tÃ³n":1559,"ĠCor":1560,"cri":1561,"dida":1562,"Ġ15":1563,"Ġban":1564,"Ġmanera":1565,"Ġbar":1566,"pre":1567,"Ġparticip":1568,"iva":1569,"iga":1570,"Ġpi":1571,"Ġmunicip":1572,"Ġk":1573,"ĠFran":1574,"Ġestable":1575,"Ġfavor":1576,"Ġello":1577,"Ã¡g":1578,"Ġinm":1579,"AdemÃ¡s":1580,"Ġmuchos":1581,"Ġuso":1582,"Ã¡l":1583,"Ġelectr":1584,"TA":1585,"Ġpeque":1586,"iversidad":1587,"unidad":1588,"Ġfa":1589,"itos":1590,"Ġcapa":1591,"Ġlab":1592,"Ġespeci":1593,"Ġhe":1594,"Ġrev":1595,"puesta":1596,"ple":1597,"usiÃ³n":1598,"Ġmanten":1599,"Ġanti":1600,"estiÃ³n":1601,"Ġlar":1602,"Ġtor":1603,"Ġvuel":1604,"ual":1605,"Ġauto":1606,"Ġnivel":1607,"all":1608,"ĠaquÃŃ":1609,"ĠcÃ³mo":1610,"Ġcara":1611,"ĠeconÃ³m":1612,"ĠOr":1613,"Ġcentro":1614,"ĠPol":1615,"Ġgas":1616,"ĠEstado":1617,"col":1618,"',":1619,"Ġigu":1620,"ables":1621,"ĠpolÃŃtica":1622,"quil":1623,"Ġi":1624,"eta":1625,"Ġjug":1626,"Ġprograma":1627,"celona":1628,"isis":1629,"Ġloc":1630,"twitter":1631,"ĠPres":1632,"Ġespa":1633,"eras":1634,"Ġmeses":1635,"Ġcuatro":1636,"irm":1637,"ĠÃģ":1638,"rim":1639,"Ġmientras":1640,"Ã³r":1641,"Ġvia":1642,"gon":1643,"ĠPSOE":1644,"ĠNav":1645,"Ġestud":1646,"leo":1647,"ibilidad":1648,"Ġos":1649,"ĠÃ©l":1650,"Ġcontenidos":1651,"Ġposible":1652,"IS":1653,"Ġsen":1654,"Ġtur":1655,"ĠnÃºmero":1656,"ĠCam":1657,"Ġacuerdo":1658,"Ġhabi":1659,"Ġalgunos":1660,"Ġdispon":1661,"ene":1662,"Ġho":1663,"Ġespec":1664,"nacional":1665,"ÃŃculo":1666,"tancia":1667,"arÃ¡n":1668,"ĠSoci":1669,"Ġesper":1670,"cionales":1671,"Ġmedi":1672,"ĠAyuntamiento":1673,"form":1674,"Ġdistin":1675,"Ġdecl":1676,"ologÃŃa":1677,"adora":1678,"Ġbo":1679,"tif":1680,"enci":1681,"Ġsa":1682,"ĠGener":1683,"reo":1684,"Ġorganiz":1685,"Ġbu":1686,"icial":1687,"ĠLu":1688,"ĠlÃŃ":1689,"ĠMon":1690,"gaciÃ³n":1691,"Ġcosas":1692,"Ġnoticias":1693,"otros":1694,"hib":1695,"siÃ³n":1696,"Ġnego":1697,"Ġso":1698,"inas":1699,"Ġdentro":1700,"Ġabr":1701,"ok":1702,"fru":1703,"Ġayud":1704,"dic":1705,"ber":1706,"Ġdirig":1707,"Ġcontinu":1708,"Ġinstal":1709,"IN":1710,"Ġgente":1711,"porte":1712,"Ġimportante":1713,"Ġderechos":1714,"lu":1715,"Ġtecn":1716,"Ġley":1717,"anci":1718,"cÃŃa":1719,"Ġrec":1720,"Ġnuestros":1721,"Ġclas":1722,"eas":1723,"Ġdebe":1724,"Ġseguir":1725,"Tam":1726,"RE":1727,"raciÃ³n":1728,"Ġclar":1729,"edia":1730,"cimiento":1731,"Ġescri":1732,"Ġgrandes":1733,"Ġconsider":1734,"ĠsituaciÃ³n":1735,"ĠJosÃ©":1736,"Ġcondi":1737,"Ġcompe":1738,"ĠSal":1739,"Ġrefer":1740,"pas":1741,"tran":1742,"Ġcomen":1743,"rea":1744,"ibu":1745,"jas":1746,"Ġvalor":1747,"gas":1748,"Ġtempor":1749,"cid":1750,"iso":1751,"iera":1752,"chez":1753,"Ġcasi":1754,"epend":1755,"uela":1756,"ĠpÃºblico":1757,"ĠLA":1758,"Ġsegur":1759,"Ġima":1760,"tud":1761,"Ġcalidad":1762,"Ġunas":1763,"Ġllegar":1764,"Ġverdad":1765,"tÃ¡n":1766,"imo":1767,"Ġejemp":1768,"bado":1769,"Ġhttp":1770,"tim":1771,"Ã©c":1772,"Ġur":1773,"uestra":1774,"adi":1775,"Ġmuer":1776,"Ġcambio":1777,"Ġeuro":1778,"inos":1779,"Ġhemos":1780,"Ġsector":1781,"oma":1782,"Ġped":1783,"Ġpregun":1784,"ĠBarcelona":1785,"Ġquer":1786,"ĠSu":1787,"ono":1788,"Ġpunto":1789,"ĠCons":1790,"TE":1791,"Ġlleg":1792,"Ġase":1793,"Ġfuera":1794,"ĠmÃ¡":1795,"Ġfuncion":1796,"ted":1797,"Ġampl":1798,"Ġdomin":1799,"ĠÃºltimo":1800,"Ġzona":1801,"An":1802,"Su":1803,"graf":1804,"Ġ18":1805,"Ġmisma":1806,"una":1807,"Ġigual":1808,"AsÃŃ":1809,"Ġperio":1810,"ersiÃ³n":1811,"Ġdig":1812,"Ġrepar":1813,"Ġsolici":1814,"Ġcelebr":1815,"Ġdisfru":1816,"Ġdiferentes":1817,"Ġembar":1818,"nes":1819,"ĠMun":1820,"Ġmujeres":1821,"Ã±as":1822,"Ġventa":1823,"terio":1824,"he":1825,"pecto":1826,"tario":1827,"Ġpad":1828,"posi":1829,"Ġpresen":1830,"tÃŃn":1831,"ĠAd":1832,"ĠCatal":1833,"Ġorig":1834,"ĠpÃ¡g":1835,"Ġlim":1836,"ĠGeneral":1837,"lado":1838,"Ġdocu":1839,"Ġtrata":1840,"esta":1841,"ctu":1842,"Ġsue":1843,"olu":1844,"iar":1845,"Que":1846,"Ġfrente":1847,"ts":1848,"ĠJuan":1849,"ĠâĢĵ":1850,"zado":1851,"unca":1852,"Ġtus":1853,"tio":1854,"Ġproductos":1855,"Ġcontrol":1856,"ima":1857,"ĠGar":1858,"olÃ³g":1859,"anto":1860,"Ġconsegu":1861,"201":1862,"RA":1863,"Ġobl":1864,"Ġdin":1865,"ecer":1866,"Me":1867,"omÃŃa":1868,"Ġrecur":1869,"Ġobjetivo":1870,"Ġella":1871,"elo":1872,"Ġmuchas":1873,"Ġsociedad":1874,"Ãĵ":1875,"UE":1876,"Ġfalta":1877,"Ġdise":1878,"ĠEx":1879,"Ġhora":1880,"Ġcumpl":1881,"esiÃ³n":1882,"Ã¡m":1883,"ne":1884,"Ã¡nchez":1885,"II":1886,"Ġtele":1887,"Ġgracias":1888,"orte":1889,"bras":1890,"Ġreco":1891,"greso":1892,"ĠNo":1893,"Ġjunto":1894,"Ġafec":1895,"Ġ12":1896,"cido":1897,"oluciÃ³n":1898,"tilla":1899,"Ġlabor":1900,"Ġorden":1901,"ivil":1902,"Ã¡r":1903,"Ġexp":1904,"Ġregistr":1905,"Ġdesarrollo":1906,"ĠGran":1907,"omos":1908,"ĠReal":1909,"Ġconocer":1910,"Ġdesp":1911,"Ġbajo":1912,"tero":1913,"Ġseguridad":1914,"Ġejemplo":1915,"ÃŃtu":1916,"Ġfinanci":1917,"Ġfoto":1918,"Ġparece":1919,"ĠMed":1920,"Ġfund":1921,"net":1922,"TambiÃ©n":1923,"Ġcambi":1924,"ire":1925,"Ġproceso":1926,"zÃ³n":1927,"mÃ¡":1928,"Ġhacia":1929,"Ġpan":1930,"Ġreun":1931,"ĠCen":1932,"pel":1933,"istro":1934,"Ġinici":1935,"Ġpersonal":1936,"ibles":1937,"Ġmejores":1938,"Ã±ana":1939,"Ġmercado":1940,"pone":1941,"Ġmanif":1942,"port":1943,"ducaciÃ³n":1944,"Ġobs":1945,"odemos":1946,"Ġdesa":1947,"Ġproced":1948,"ĠformaciÃ³n":1949,"Ġagua":1950,"ibuciÃ³n":1951,"Ġpersona":1952,"Ġaum":1953,"ĠAg":1954,"Ġalum":1955,"IL":1956,"Sin":1957,"Ġtard":1958,"respon":1959,"Ġdice":1960,"para":1961,"ula":1962,"fa":1963,"Ġpuer":1964,"Ġactualidad":1965,"Ġminu":1966,"Ha":1967,"Ġgobierno":1968,"Ġnombre":1969,"pic":1970,"gue":1971,"uego":1972,"Ġmos":1973,"Ġacep":1974,"lor":1975,"turo":1976,"Ġsociales":1977,"Ġponer":1978,"Ġveces":1979,"istra":1980,"Ġpartir":1981,"uye":1982,"ĠNacional":1983,"ich":1984,"Ġdiv":1985,"Ã³s":1986,"Ġprohib":1987,"Ġcolec":1988,"Ġale":1989,"Ġgaran":1990,"Ġcir":1991,"Ġcolabor":1992,"Ġdirector":1993,"iene":1994,"ĠCiudad":1995,"dial":1996,"Ġfran":1997,"ajes":1998,"tend":1999,"MA":2000,"Ġ30":2001,"Ġdescu":2002,"illo":2003,"lv":2004,"Ġalcan":2005,"ĠmÃºs":2006,"Ġasegur":2007,"Ã¡f":2008,"Ġcinco":2009,"Ġdem":2010,"ĠSÃ¡nchez":2011,"Ġcandida":2012,"ice":2013,"Ġjus":2014,"ĠÃºltimos":2015,"Ġindepend":2016,"Ġproblema":2017,"Ġejer":2018,"taciones":2019,"Ġnuevos":2020,"Ġproblemas":2021,"ĠprÃ³ximo":2022,"Ġnuevas":2023,"Ġpuesto":2024,"itas":2025,"Ġacab":2026,"ĠAm":2027,"Ġestaba":2028,"Ġfor":2029,"Ġliber":2030,"Desd":2031,"Desde":2032,"Ġgol":2033,"RO":2034,"Ġincluso":2035,"Ġembargo":2036,"Ġdeber":2037,"rÃ¡n":2038,"Como":2039,"Ġderecho":2040,"red":2041,"ĠIns":2042,"Ġpuntos":2043,"Ġactividades":2044,"tencia":2045,"ram":2046,"lio":2047,"uÃ±a":2048,"ĠelectrÃ³n":2049,"Ġocas":2050,"Ġsex":2051,"Ġcontac":2052,"Ġet":2053,"Ġsegunda":2054,"ĠMin":2055,"Ġmus":2056,"Ġselec":2057,"ĠprÃ¡c":2058,"Ġder":2059,"Ġexperiencia":2060,"gel":2061,"ĠUniversidad":2062,"ĠniÃ±os":2063,"Ġtermin":2064,"LA":2065,"ID":2066,"Ġinstitu":2067,"nas":2068,"tual":2069,"Ġnosotros":2070,"th":2071,"ite":2072,"cier":2073,"ministr":2074,"ĠConse":2075,"ĠEN":2076,"Ġcaus":2077,"Ġextra":2078,"dose":2079,"pular":2080,"Com":2081,"Ġil":2082,"alizaciÃ³n":2083,"ip":2084,"ivo":2085,"Ġobra":2086,"ror":2087,"pciÃ³n":2088,"be":2089,"Ġnunca":2090,"izo":2091,"Ġ11":2092,"odos":2093,"Ġpalab":2094,"ĠaÃºn":2095,"Ġjorn":2096,"Ġbuena":2097,"Ġprovin":2098,"ron":2099,"Ġlado":2100,"ves":2101,"Ġanim":2102,"echa":2103,"Ġpaso":2104,"Ġabs":2105,"icul":2106,"puestos":2107,"Ġpromo":2108,"Ġed":2109,"Ġalcal":2110,"blo":2111,"Ġnacional":2112,"ĠmÃ©":2113,"Ġon":2114,"Ġactividad":2115,"Ġrecom":2116,"ĠPer":2117,"irma":2118,"--":2119,"ciendo":2120,"Ġtenemos":2121,"Ġvan":2122,"zos":2123,"termin":2124,"Ġsegundo":2125,"Ġblog":2126,"ĠlÃŃn":2127,"ajo":2128,"Ġsiendo":2129,"Ġprue":2130,"Ġdicho":2131,"Ġrealidad":2132,"pti":2133,"ĠmayorÃŃa":2134,"IA":2135,"gles":2136,"Ġdefin":2137,"ĠmaÃ±ana":2138,"Ġcatal":2139,"Ġestudi":2140,"Ġofer":2141,"Ġli":2142,"ĠpaÃŃses":2143,"mento":2144,"Ġconj":2145,"Ġeurope":2146,"Ġelecciones":2147,"peraciÃ³n":2148,"edro":2149,"ĠEurope":2150,"vÃŃa":2151,"ducciÃ³n":2152,"Ġcentr":2153,"ĠFern":2154,"Ġcapital":2155,"Ġlogr":2156,"Re":2157,"ificaciÃ³n":2158,"Ġfuturo":2159,"Ġagr":2160,"Ġviol":2161,"Ġfil":2162,"Ġsentido":2163,"ÃŃculos":2164,"Ġhombre":2165,"iza":2166,"Ġben":2167,"Ġcorrespon":2168,"Ġsalud":2169,"icidad":2170,"Ġrealizar":2171,"rera":2172,"Ġencontrar":2173,"Ġall":2174,"ĠIs":2175,"Ġconven":2176,"Ġmedios":2177,"Ġhaya":2178,"rar":2179,"abilidad":2180,"Ġfueron":2181,"Ġ25":2182,"Ġnaveg":2183,"irÃ¡":2184,"ĠaÃ±ad":2185,"ific":2186,"enas":2187,"ind":2188,"Seg":2189,"Ġnatural":2190,"bra":2191,"Ġfamilia":2192,"Ġacer":2193,"jar":2194,"Ġ13":2195,"Ġmens":2196,"Ġpin":2197,"ĠseÃ±al":2198,"tbol":2199,"Ġactual":2200,"TO":2201,"Ġcondiciones":2202,"tonces":2203,"Ġdep":2204,"ik":2205,"Ġalgunas":2206,"Ġmostr":2207,"ÃŃc":2208,"Ġmiem":2209,"Ġpriv":2210,"To":2211,"ck":2212,"ĠmÃ¡xim":2213,"esa":2214,"ĠcomunicaciÃ³n":2215,"rado":2216,"Ġpob":2217,"ular":2218,"Ġrecor":2219,"Ġfi":2220,"ĠTor":2221,"Ġacceso":2222,"Ġvarios":2223,"ĠrelaciÃ³n":2224,"Ġprem":2225,"Ġjun":2226,"Ġquiere":2227,"Ġlargo":2228,"Ġobten":2229,"ĠLey":2230,"Ġsecre":2231,"ale":2232,"Ġtarde":2233,"inaciÃ³n":2234,"Ġru":2235,"Ġopin":2236,"Ġentidad":2237,"Ġprogram":2238,"Ġapoyo":2239,"Ġconver":2240,"Ġetc":2241,"tÃ³r":2242,"Ġlibro":2243,"ĠpelÃŃcu":2244,"istencia":2245,"fo":2246,"Ġnorm":2247,"ender":2248,"Ġnov":2249,"Ġserie":2250,"Ġentrada":2251,"ĠÃºltima":2252,"EL":2253,"Ġeleg":2254,"ital":2255,"Ġsos":2256,"Ġavan":2257,"edor":2258,"Ġmov":2259,"enda":2260,"Ã¡nd":2261,"visiÃ³n":2262,"Ġjuego":2263,"ulio":2264,"op":2265,"Ġmano":2266,"ĠartÃŃculo":2267,"ger":2268,"Ġhabr":2269,"ĠES":2270,"Ġconsul":2271,"rez":2272,"Ġmul":2273,"Ġ/":2274,"lex":2275,"Ġresto":2276,"Ġprecio":2277,"Ġpartici":2278,"Ġpartidos":2279,"ĠfÃ¡":2280,"bas":2281,"imen":2282,"Ġinte":2283,"Ġdici":2284,"Ġmor":2285,"daluc":2286,"si":2287,"Ġcuer":2288,"Ġ0":2289,"curso":2290,"Ġobras":2291,"icÃŃa":2292,"tagon":2293,"iernes":2294,"cter":2295,"Ġclaro":2296,"icamente":2297,"Ġer":2298,"ociaciÃ³n":2299,"Ġconte":2300,"reg":2301,"Ġcomentarios":2302,"OM":2303,"Ġdecid":2304,"Ġusuarios":2305,"ĠEL":2306,"ĠdirecciÃ³n":2307,"Ġfon":2308,"Ġ14":2309,"Ãį":2310,"arÃŃa":2311,"Ġreserv":2312,"ombres":2313,"Ġdepor":2314,"Ġdinero":2315,"30":2316,"Ġveci":2317,"Ġdeclar":2318,"tiene":2319,"ler":2320,"Ã³p":2321,"ĠespaÃ±ola":2322,"ques":2323,"Ġsiguiente":2324,"tiz":2325,"Ġcalle":2326,"Ġencuentra":2327,"Ġimpl":2328,"Ġrepro":2329,"Ġesti":2330,"Ã¡p":2331,"Ġabier":2332,"ign":2333,"ienda":2334,".-":2335,"ĠQ":2336,"ug":2337,"ĠlÃŃder":2338,"Ġcap":2339,"Ġinicia":2340,"Ġgen":2341,"ĠBa":2342,"Ġsitio":2343,"Ġtemporada":2344,"Ġpuedes":2345,"Ġoport":2346,"Ġespacio":2347,"Ġcri":2348,"Ã©is":2349,"ĠPodemos":2350,"Cuando":2351,"ĠediciÃ³n":2352,"Ġimagen":2353,"Ġdeba":2354,"SegÃºn":2355,"Ġmateri":2356,"ĠpodrÃŃa":2357,"Ġempez":2358,"Ġbenef":2359,"adie":2360,"eder":2361,"Ġ16":2362,"eron":2363,"edades":2364,"...]":2365,"ĠMarÃŃa":2366,"alizar":2367,"of":2368,"igos":2369,"anas":2370,"Ġrelacion":2371,"Ġcla":2372,"Ġlec":2373,"ĠPu":2374,"Ġsigue":2375,"ient":2376,"Ġdetermin":2377,"Ġ24":2378,"ĠLos":2379,"Ġsac":2380,"Ġocur":2381,"Ġnoche":2382,"bros":2383,"Ġinclu":2384,"ĠinvestigaciÃ³n":2385,"ticia":2386,"Ã¼":2387,"Ġalguna":2388,"ĠcampaÃ±a":2389,"char":2390,"Ġconse":2391,"ĠpÃºblica":2392,"tru":2393,"Ġprotagon":2394,"trucciÃ³n":2395,"villa":2396,"Ġprimero":2397,"ĠpÃ¡gina":2398,"Ġescu":2399,"bal":2400,"EstÃ¡":2401,"ĠningÃºn":2402,"Ġprepar":2403,"inar":2404,"Ġmediante":2405,"Ġidenti":2406,"venes":2407,"Ġanterior":2408,"Ġrespecto":2409,"Ġsor":2410,"Ġenerg":2411,"Ġ17":2412,"ĠRa":2413,"tina":2414,"Ġcorreo":2415,"ĠPr":2416,"Ġestudio":2417,"ili":2418,"Ġatra":2419,"Ġpropio":2420,"Ġsaber":2421,"Ġofrece":2422,"OL":2423,"Ġacom":2424,"Ã³vil":2425,"Ġpasar":2426,"ilar":2427,"19":2428,"tecciÃ³n":2429,"erra":2430,"Ġdejar":2431,"izar":2432,"ĠgestiÃ³n":2433,"Ah":2434,"Ġmedidas":2435,"illas":2436,"tia":2437,"Ġenfer":2438,"gn":2439,"Ġpresid":2440,"ĠPo":2441,"Ġreal":2442,"Ġprofesionales":2443,"ĠComunidad":2444,"ÃŃtulo":2445,"amb":2446,"ĠPla":2447,"ĠMo":2448,"bles":2449,"ional":2450,"Ġries":2451,"ÃŃdeo":2452,"tonio":2453,"ĠAc":2454,"xto":2455,"Ġfe":2456,"tarÃ¡":2457,"aja":2458,"torial":2459,"Ġparticular":2460,"Ġanunci":2461,"quis":2462,"Ġescrib":2463,"abr":2464,"Ġtitu":2465,"ete":2466,"Ġblan":2467,"Ġcasos":2468,"Ġases":2469,"Ġresultados":2470,"Ġfacil":2471,"Ġsiglo":2472,"Ġsur":2473,"TI":2474,"Ġreconoci":2475,"Ġviernes":2476,"Ġveh":2477,"Ġminutos":2478,"unes":2479,"Ġpodemos":2480,"Ġapor":2481,"osa":2482,"Ġencar":2483,"Ġrecord":2484,"rag":2485,"Ġmodelo":2486,"ĠAu":2487,"Ġpatr":2488,"Ġningun":2489,"Ġdistr":2490,"ĠLuis":2491,"Ġevitar":2492,"ministra":2493,"val":2494,"uerra":2495,"Ġestr":2496,"Ġcrisis":2497,"ĠmÃºsica":2498,"Ġaprend":2499,"Ġpublic":2500,"ĠÃ©s":2501,"Ġexig":2502,"cend":2503,"adio":2504,"ÃĵN":2505,"www":2506,"Ã³venes":2507,"oven":2508,"Ġrel":2509,"Ġpapel":2510,"ĠCal":2511,"Hay":2512,"izquier":2513,"Ġposi":2514,"Ġtema":2515,"tadas":2516,"ende":2517,"ĠPor":2518,"iÃ©n":2519,"Ġindustr":2520,"Pue":2521,"dalucÃŃa":2522,"ĠPedro":2523,"rÃŃ":2524,"Ġgal":2525,"UN":2526,"ablo":2527,"ifica":2528,"Ġprohibida":2529,"ĠPre":2530,"Ġfo":2531,"Ġocu":2532,"ase":2533,"Ġdemo":2534,"imon":2535,"ĠAgencia":2536,"ĠDes":2537,"genes":2538,"Ġcuar":2539,"Ġrom":2540,"Ġimp":2541,"venciÃ³n":2542,"ĠsÃ¡":2543,"Ġperd":2544,"ense":2545,"Ġmodo":2546,"ĠEmp":2547,"Ġvas":2548,"Ġprecios":2549,"Ġperiod":2550,"Ġdivers":2551,"Ġdado":2552,"Ġprensa":2553,"isterio":2554,"QuÃ©":2555,"Ġentonces":2556,"Ġdisfrutar":2557,"ĠCl":2558,"forma":2559,"Ġconstitu":2560,"Ġmarcha":2561,"Ġlan":2562,"Ġpermite":2563,"ĠsesiÃ³n":2564,"Ġmater":2565,"Ġbal":2566,"ix":2567,"ĠReg":2568,"ap":2569,"Ġhizo":2570,"trod":2571,"eos":2572,"Ġexcl":2573,"rido":2574,"tiÃ³":2575,"Ġcuanto":2576,"Ġoblig":2577,"Ġnuestras":2578,"Ġperfec":2579,"ctubre":2580,"ancia":2581,"ueva":2582,"lÃ©":2583,"Ġellas":2584,"iado":2585,"Ġtenido":2586,"Ġtercer":2587,"ĠLas":2588,"Ãĥ":2589,"Ġizquier":2590,"ĠtenÃŃa":2591,"Ġincre":2592,"ducir":2593,"Ġcabo":2594,"culo":2595,"Ġayer":2596,"ĠRo":2597,"Ġdetal":2598,"ajoy":2599,"Ġresultado":2600,"emor":2601,"Pro":2602,"ĠGal":2603,"Ġdestac":2604,"ĠNavarra":2605,"EC":2606,"puestas":2607,"Ġestamos":2608,"Ġmedia":2609,"Ġmayo":2610,"Ġrecibir":2611,"ht":2612,"voca":2613,"Ġconcre":2614,"Ġ[...]":2615,"adoras":2616,"ĠCataluÃ±a":2617,"ila":2618,"Ġjunio":2619,"Ġpresentar":2620,"ciales":2621,"Ġll":2622,"Ġhub":2623,"iesta":2624,"Ġalim":2625,"Ġjornada":2626,"Ġplazo":2627,"dica":2628,"ĠGo":2629,"tavo":2630,"iscal":2631,"Ġcapacidad":2632,"ira":2633,"ĠjÃ³venes":2634,"Ġimportantes":2635,"Ġedad":2636,"Ġcoci":2637,"Ġcerca":2638,"ĠÃºnico":2639,"rio":2640,"Ġprincipales":2641,"Ġdeten":2642,"Ġcolor":2643,"Ġbase":2644,"Ġayuda":2645,"Ġpresu":2646,"Ġestra":2647,"ĠPress":2648,"ĠatenciÃ³n":2649,"Ġpueblo":2650,"mientos":2651,"Ġproyectos":2652,"Ġseis":2653,"Ġtes":2654,"Ġprincipal":2655,"ĠespaÃ±oles":2656,"Ġcurso":2657,"Ġaud":2658,"Ġdomingo":2659,"Ġesos":2660,"onos":2661,"Ġcaracter":2662,"Ġvig":2663,"ÃŃtica":2664,"ministraciÃ³n":2665,"Ġenvi":2666,"iano":2667,"Ġrepresen":2668,"eria":2669,"Ġcorrespond":2670,"Ġunivers":2671,"uales":2672,"Ġcuen":2673,"Ġfac":2674,"ĠServ":2675,"cionar":2676,"Ġinternacional":2677,"ĠCul":2678,"Ġsens":2679,"Ġeven":2680,"ĠAndalucÃŃa":2681,"ĠalgÃºn":2682,"Ġllevar":2683,"ev":2684,"Ġdesta":2685,"Ġejerci":2686,"âĢĶ":2687,"Ġpropia":2688,"ĠJunta":2689,"Ġlleva":2690,"ĠrÃ¡p":2691,"ental":2692,"Ġdiciembre":2693,"turi":2694,"ĠRey":2695,"Ġanun":2696,"Ġprevio":2697,"Ġimpres":2698,"ptiembre":2699,"ĠFa":2700,"Ġadel":2701,"Ġnadie":2702,"ĠÃ©x":2703,"Ġjoven":2704,"tora":2705,"Ġtienes":2706,"Ġconseguir":2707,"Esto":2708,"ED":2709,"ile":2710,"Ġlibre":2711,"Ġincor":2712,"Yo":2713,"ĠJo":2714,"Ġtengo":2715,"ĠCarlos":2716,"Ġsufr":2717,"orÃŃa":2718,"inal":2719,"Ġ50":2720,"Ġnecesario":2721,"ĠelectrÃ³nico":2722,"Ġvari":2723,"estiv":2724,"ĠdisposiciÃ³n":2725,"toral":2726,"Ġresta":2727,"Ġacced":2728,"nov":2729,"onas":2730,"ĠcompaÃ±ÃŃa":2731,"ĠCongreso":2732,"Ãºa":2733,"ecen":2734,"Ġsign":2735,"Ġhos":2736,"Ġdemoc":2737,"Ġdo":2738,"Ġdijo":2739,"ĠValencia":2740,"are":2741,"torno":2742,"ĠAntonio":2743,"cto":2744,"line":2745,"Ġplante":2746,"mail":2747,"Tras":2748,"Ġseptiembre":2749,"ĠhistÃ³r":2750,"ueves":2751,"ches":2752,"Ġencan":2753,"Ġgrupos":2754,"Ġalter":2755,"ĠGarcÃŃa":2756,"ĠSa":2757,"Ġcierto":2758,"ĠPe":2759,"Ġvarias":2760,"ĠPal":2761,"Ġhacen":2762,"tÃ©":2763,"10":2764,"ĠtendrÃ¡":2765,"viembre":2766,"Ġempleo":2767,"Ġcreo":2768,"Le":2769,"Ġoctubre":2770,"Ġcampo":2771,"dico":2772,"Ġpueda":2773,"Ġluego":2774,"eric":2775,"Ġalta":2776,"tino":2777,"Ġvisto":2778,"ĠacompaÃ±":2779,"ĠsÃ¡bado":2780,"jero":2781,"Ã¡ndez":2782,"ĠUnidos":2783,"umo":2784,"ĠEstados":2785,"ĠDirec":2786,"Ġconsenti":2787,"crib":2788,"Ġpresenta":2789,"Todos":2790,"Ġprofesional":2791,"itan":2792,"Ya":2793,"ÃŃstica":2794,"Ġrespe":2795,"Ġinforma":2796,"isla":2797,"Ġlunes":2798,"chas":2799,"Ġvolver":2800,"Ġlocalidad":2801,"torios":2802,"ĠinterÃ©s":2803,"ĠfÃ¡cil":2804,"Ġalcald":2805,"dap":2806,"Ġjur":2807,"Ġado":2808,"Entre":2809,"jes":2810,"Ġfundam":2811,"Ġcontenido":2812,"Ġedif":2813,"Ġverano":2814,"Ġpesar":2815,"ke":2816,"Ġemple":2817,"Ġredes":2818,"tÃŃa":2819,"iguel":2820,"ĠtÃ©cnico":2821,"Ġvir":2822,"Ġbr":2823,"Ġpud":2824,"ardia":2825,"UR":2826,"Ġclientes":2827,"Te":2828,"ÃŃcti":2829,"cionado":2830,"ĠIgles":2831,"ĠMartÃŃn":2832,"ĠCol":2833,"fil":2834,"Ġmir":2835,"Ġidea":2836,"Ġata":2837,"Ġgusta":2838,"Ġjulio":2839,"Ġciudadanos":2840,"Ãī":2841,"Ġpresente":2842,"Ġapoy":2843,"PA":2844,"Ġconjunto":2845,"ĠJav":2846,"Ġtri":2847,"tales":2848,"Ġ100":2849,"Ġvic":2850,"lamento":2851,"ĠCON":2852,"Ġmarca":2853,"Ġtrabajadores":2854,"Ġhablar":2855,"ĠSanta":2856,"Ġenferm":2857,"Ġamor":2858,"Ġofici":2859,"Ġofrecer":2860,"CION":2861,"Ġ+":2862,"oro":2863,"Ġrecl":2864,"ĠSocial":2865,"Ġincorpor":2866,"Ġpasa":2867,"Ġ21":2868,"Ġ2018":2869,"Ġneg":2870,"Ġconsentimiento":2871,"Ġqueda":2872,"ideo":2873,"ting":2874,"ĠlÃŃnea":2875,"Ġlibertad":2876,"au":2877,"__":2878,"mbi":2879,"ĠpodrÃ¡":2880,"ĠTo":2881,"ĠTer":2882,"ĠparticipaciÃ³n":2883,"ĠmÃŃn":2884,"Ahora":2885,"Ġseman":2886,"ober":2887,"Ġencuentro":2888,"Ġestre":2889,"ĠBo":2890,"Ġexpresamente":2891,"taria":2892,"ÃŃsticas":2893,"ĠÂ¡":2894,"Ar":2895,"fe":2896,"Ġprimeros":2897,"ema":2898,"Ġ2017":2899,"mon":2900,"Ġposibilidad":2901,"ordin":2902,"mentos":2903,"itario":2904,"Ġperman":2905,"gl":2906,"Ġmuestra":2907,"ĠorganizaciÃ³n":2908,"Ġcantidad":2909,"ilidades":2910,"Ġelem":2911,"Ref":2912,"Ġib":2913,"unal":2914,"ĠIN":2915,"Ġprovincia":2916,"olo":2917,"ĠCentro":2918,"Ġproces":2919,"Ġquienes":2920,"Ġusuario":2921,"Ġdescar":2922,"ĠvÃŃcti":2923,"Ġacto":2924,"Ġterri":2925,"Ġadap":2926,"Ġacus":2927,"IO":2928,"duca":2929,"Ġide":2930,"Ġmuerte":2931,"irse":2932,"Ġolv":2933,"Ġconce":2934,"elos":2935,"ĠmÃ³vil":2936,"Ġintegr":2937,"Ġmedida":2938,"ĠBan":2939,"Ġcuerpo":2940,"MÃ¡s":2941,"Ġpalabras":2942,"ĠMor":2943,"Ġproducto":2944,"Ġmiembros":2945,"ural":2946,"Ġdoc":2947,"ĠDÃŃa":2948,"ĠCastilla":2949,"Ġmarzo":2950,"Ġtuvo":2951,"omas":2952,"ĠTur":2953,"idar":2954,"Ġacog":2955,"ĠtÃ©r":2956,"Ġrespuesta":2957,"Ġpic":2958,"eja":2959,"Ġlocal":2960,"rac":2961,"ÃŃamos":2962,"AM":2963,"Ġtom":2964,"ĠÃ¡mbi":2965,"aro":2966,"ĠMinisterio":2967,"Ġabril":2968,"ĠserÃŃa":2969,"ĠPlan":2970,"ĠpolÃŃticos":2971,"Ġplata":2972,"Ġnoviembre":2973,"ĠdifÃŃ":2974,"ĠaplicaciÃ³n":2975,"Ġconcl":2976,"ĠtodavÃŃa":2977,"Ġkil":2978,"Ġsiguientes":2979,"Ġparticipar":2980,"ĠSevilla":2981,"tion":2982,"grÃ¡f":2983,"Ġelim":2984,"Ġelabor":2985,"ientÃŃf":2986,"Ġluz":2987,"ĠpolÃŃtico":2988,"ĠMer":2989,"Ġesf":2990,"ĠRajoy":2991,"Ġjueves":2992,"Ġtradi":2993,"Ġresponsable":2994,"Ġcentros":2995,"brero":2996,"Ġresid":2997,"Ġcomien":2998,"ĠConsejo":2999,"zÃ³":3000,"prend":3001,"Ġdipu":3002,"Ġauton":3003,"rupo":3004,"Ġfel":3005,"Ġvista":3006,"Ġcarrera":3007,"Â».":3008,"tividad":3009,"Ġmejorar":3010,"ĠmÃŃ":3011,"'.":3012,"ĠAnd":3013,"Ġcad":3014,"Ġlen":3015,"Ġmantener":3016,"Ġalumnos":3017,"ka":3018,"ramien":3019,"Ġcontacto":3020,"ĠpelÃŃcula":3021,"ĠserÃ¡n":3022,"Ġenfr":3023,"fica":3024,"su":3025,"Hoy":3026,"ĠcolaboraciÃ³n":3027,"Ġentren":3028,"Ġlista":3029,"Ã³d":3030,"Ġcabeza":3031,"alizado":3032,"Â»,":3033,"ĠdecisiÃ³n":3034,"Ġfecha":3035,"ecre":3036,"Ġexisten":3037,"guien":3038,"Ġconserv":3039,"onz":3040,"Ġdeman":3041,"Ġriesgo":3042,"Ġdestin":3043,"Ġpoc":3044,"Ġpresencia":3045,"Ġub":3046,"ĠCris":3047,"Ġrecursos":3048,"Ġcargo":3049,"Ġasegu":3050,"Ġmenor":3051,"Ġsir":3052,"Ãºtbol":3053,"eda":3054,"ĠCivil":3055,"Ġhaciendo":3056,"Ġcamino":3057,"ĠMus":3058,"Ġmayores":3059,"talla":3060,"Ġgratis":3061,"Ġcosa":3062,"arlo":3063,"vista":3064,"torias":3065,"Res":3066,"ĠÃ©xito":3067,"formaciÃ³n":3068,"Ġalto":3069,"Ġalcalde":3070,"alo":3071,"Ġhom":3072,"Ġaquellos":3073,"rab":3074,"taron":3075,"vech":3076,"Ã¡cter":3077,"Ġcrear":3078,"ĠCu":3079,"Ġatr":3080,"Ġimpul":3081,"Ġclub":3082,"Ġdom":3083,"undaciÃ³n":3084,"Nos":3085,"Ġ2016":3086,"coles":3087,"enos":3088,"Ġduda":3089,"ruz":3090,"Ġ22":3091,"ela":3092,"Ġcine":3093,"Ġninguna":3094,"Ġoficial":3095,"jus":3096,"oco":3097,"bro":3098,"Ġcomunidad":3099,"Ġsean":3100,"Ex":3101,"ĠcarÃ¡cter":3102,"diÃ³":3103,"Ġbol":3104,"Ġespera":3105,"ĠversiÃ³n":3106,"Ġpron":3107,"Ġenero":3108,"Ġ199":3109,"ĠAle":3110,"iblio":3111,"Ġpoten":3112,"Ġsolu":3113,"Ġseguro":3114,"igue":3115,"lez":3116,"ĠTrib":3117,"ĠpolÃŃticas":3118,"Ġenv":3119,"ĠpoblaciÃ³n":3120,"ciÃ³":3121,"Ġdigital":3122,"Ġmetros":3123,"Ġinterna":3124,"tivamente":3125,"Ġgratu":3126,"istribuciÃ³n":3127,"Ġamigos":3128,"cisco":3129,"Ã¡lisis":3130,"Ġcomb":3131,"Ġexpreso":3132,"ĠHer":3133,"ut":3134,"turales":3135,"cados":3136,"Ġpuesta":3137,"teriores":3138,"Ġnecesidad":3139,"imonio":3140,"pan":3141,"enso":3142,"trodu":3143,"ĠRod":3144,"Ġ40":3145,"Ġcultura":3146,"iendas":3147,"cima":3148,"Ġhombres":3149,"Ġincluy":3150,"Ġtrabajar":3151,"via":3152,"ĠPablo":3153,"Ġense":3154,"ĠMiguel":3155,"Ġmadre":3156,"Ġextre":3157,"estival":3158,"Ġadecu":3159,"Ġmucha":3160,"irmado":3161,"echo":3162,"CO":3163,"Ġpropor":3164,"tiendo":3165,"Ġcorr":3166,"Ġpis":3167,"Ġpreocu":3168,"Ġarte":3169,"Ġinterior":3170,"Cons":3171,"ĠInstitu":3172,"ĠMu":3173,"Aunque":3174,"ĠInd":3175,"Ġvisita":3176,"ĠestÃ©":3177,"Ġtemas":3178,"bier":3179,"cam":3180,"Â«":3181,"Ã©m":3182,"200":3183,"Ã¡ndo":3184,"Ġartis":3185,"Ġherramien":3186,"Ã³nica":3187,"Ġviene":3188,"Ġdemos":3189,"ĠÃºnica":3190,"Ġgr":3191,"Ġasegura":3192,"uelo":3193,"Ġjud":3194,"ifusiÃ³n":3195,"Ġacon":3196,"Ġdeben":3197,"Ġcateg":3198,"illos":3199,"Ġagu":3200,"Ġprevis":3201,"terÃŃa":3202,"ĠPolicÃŃa":3203,"Ã©rcoles":3204,"iro":3205,"book":3206,"ĠimÃ¡":3207,"Ġpaci":3208,"teca":3209,"ĠInternet":3210,"Ġaband":3211,"Portal":3212,"Ġsalida":3213,"tender":3214,"ĠComun":3215,"uerto":3216,"Ġhijos":3217,"ĠManuel":3218,"ĠdiseÃ±o":3219,"Ġdob":3220,"imientos":3221,"Ġoferta":3222,"Ġespecialmente":3223,"pr":3224,"oso":3225,"Ġbusc":3226,"ĠredistribuciÃ³n":3227,"ĠEspaÃ±ol":3228,"Ġcompeti":3229,"acciÃ³n":3230,"ĠMur":3231,"ese":3232,"Ġviolencia":3233,"Ġpropuesta":3234,"tavoz":3235,"Ġpuedan":3236,"rÃŃa":3237,"tarse":3238,"EM":3239,"iencias":3240,"Ġcomprom":3241,"Ġmartes":3242,"ĠEuropea":3243,"Ġsencil":3244,"ĠimÃ¡genes":3245,"tarÃŃa":3246,"Ġaire":3247,"IT":3248,"Ġrecuer":3249,"ĠtÃ©rmin":3250,"CIÃĵN":3251,"ivos":3252,"Ġprodu":3253,"mite":3254,"Ġpier":3255,"Ġestruc":3256,"Ġnum":3257,"Ġmoder":3258,"Ġvamos":3259,"50":3260,"itada":3261,"ĠfÃŃs":3262,"gosto":3263,"Ġusted":3264,"Ġvecinos":3265,"ly":3266,"ĠGonz":3267,"ĠQu":3268,"we":3269,"olver":3270,"ĠredifusiÃ³n":3271,"Ġtrad":3272,"entemente":3273,"ivid":3274,"ierra":3275,"Ġciento":3276,"mad":3277,"uras":3278,"idores":3279,"Ġ28":3280,"bilidad":3281,"edores":3282,"Ġleer":3283,"CA":3284,"ĠÃ¡rea":3285,"lad":3286,"Ġesca":3287,"ĠeconÃ³mica":3288,"itado":3289,"Ġguerra":3290,"ical":3291,"Mu":3292,"ĠdÃ©":3293,"Ġlaboral":3294,"ĠdemÃ¡s":3295,"Ġgaranti":3296,"ĠcreaciÃ³n":3297,"Ġllega":3298,"ĠUN":3299,"ĠahÃŃ":3300,"Ġregistrado":3301,"iedo":3302,"Ġprueba":3303,"one":3304,"var":3305,"ĠTwitter":3306,"Ġdescon":3307,"Ġconsecu":3308,"Ġdirecto":3309,"Ġvolun":3310,"itat":3311,"Ġpen":3312,"Ġambos":3313,"Ġdebate":3314,"Ġ\\":3315,"ĠDEL":3316,"ĠInternacional":3317,"aliza":3318,"Ġesas":3319,"vin":3320,"Ma":3321,"Ġalguien":3322,"Ġderecha":3323,"Ġmanifes":3324,"Ġrecuper":3325,"Ġrecomend":3326,"Ġagrad":3327,"partam":3328,"Ġpelig":3329,"Ġmanos":3330,"ĠEducaciÃ³n":3331,"siones":3332,"Todo":3333,"ĠdifÃŃcil":3334,"âĤ":3335,"Ġconcier":3336,"Ġvend":3337,"âĤ¬":3338,"Ã¡tico":3339,"Ġcambiar":3340,"ianza":3341,"itaciÃ³n":3342,"CH":3343,"Ġentorno":3344,"bria":3345,"Par":3346,"ticamente":3347,"ĠEj":3348,"Ġconvoca":3349,"ĠpodrÃ¡n":3350,"Ġexplica":3351,"ĠUr":3352,"Ġsupone":3353,"Ġcoleg":3354,"Ġcontar":3355,"ĠSeg":3356,"ĠopiniÃ³n":3357,"ĠFundaciÃ³n":3358,"Ġconsum":3359,"Ġaprob":3360,"ĠtÃŃtulo":3361,"imismo":3362,"taba":3363,"Ġinforme":3364,"ĠmiÃ©rcoles":3365,"Ġdese":3366,"Ġdiez":3367,"Ġescen":3368,"Ġeduca":3369,"Ġeran":3370,"Ġaprovech":3371,"Ġdefini":3372,"Ġdud":3373,"ĠCiudadanos":3374,"Ġequipos":3375,"Mar":3376,"Ġemo":3377,"Ġsuced":3378,"Ġbastante":3379,"Ġiniciativa":3380,"Ã¡mara":3381,"Ġmateria":3382,"Ġbueno":3383,"Ã©l":3384,"ĠLo":3385,"ĠPÃºbl":3386,"ĠoposiciÃ³n":3387,"ĠHa":3388,"laga":3389,"itaria":3390,"ĠDipu":3391,"Car":3392,"Ġmismos":3393,"iles":3394,"Ġestoy":3395,"Ġfotos":3396,"Ġ26":3397,"Ġpadres":3398,"OD":3399,"Ġgrand":3400,"ĠvÃŃa":3401,"ĠLeÃ³n":3402,"Ġprecis":3403,"ÃŃdo":3404,"ÃŃstico":3405,"pir":3406,"Ġaz":3407,"Ġopera":3408,"Ġdemostr":3409,"Ġexclus":3410,"Ġcontemp":3411,"ĠHo":3412,"Ġ23":3413,"http":3414,"racia":3415,"Ġprovoc":3416,"izado":3417,"Ġterc":3418,"rig":3419,"ĠacciÃ³n":3420,"Ġlid":3421,"ecido":3422,"Ġconcep":3423,"estion":3424,"ĠeducaciÃ³n":3425,"Ġizquierda":3426,"ĠNe":3427,"ĠreproducciÃ³n":3428,"ĠÃ©po":3429,"Ġdefensa":3430,"Ġestudios":3431,"Ġsemanas":3432,"Ã©ctr":3433,"Ġcorrec":3434,"Ġsimple":3435,"grafÃŃa":3436,"Ã³pez":3437,"Ġbeb":3438,"tabria":3439,"ĠRes":3440,"Ġcivil":3441,"Ġfabr":3442,"ĠsÃ©":3443,"Ã¡ndose":3444,"Pre":3445,"Ġimportancia":3446,"Ġpermitir":3447,"ĠpÃºblicos":3448,"Ã³me":3449,"Ġfuerza":3450,"lares":3451,"Ġlibros":3452,"tida":3453,"onso":3454,"dem":3455,"Ġcoche":3456,"Ġhotel":3457,"Dis":3458,"Ġdisposi":3459,"Ġbel":3460,"logo":3461,"cebook":3462,"Ġrecha":3463,"ique":3464,"ĠMundial":3465,"ĠJa":3466,"ĠFrancisco":3467,"amientos":3468,"todo":3469,"Ġvideo":3470,"Ġabsolu":3471,"Ġsed":3472,"racias":3473,"ĠcientÃŃf":3474,"Ġmotivo":3475,"Ġganar":3476,"Ġsabe":3477,"guez":3478,"Ġcif":3479,"Ġpopular":3480,"Ġindivid":3481,"âĢ¢":3482,"vela":3483,"Ġsalir":3484,"Ġzonas":3485,"ian":3486,"Ġtexto":3487,"Ġjugar":3488,"Ġapues":3489,"gada":3490,"Ten":3491,"ĠproducciÃ³n":3492,"Ġpone":3493,"lic":3494,"Ã©rica":3495,"ĠAsociaciÃ³n":3496,"ĠBen":3497,"fes":3498,"Ġcomentario":3499,"ĠMe":3500,"ĠJes":3501,"Ġpretend":3502,"ĠLOS":3503,"ws":3504,"Ġterror":3505,"Ġtomar":3506,"Ġantigu":3507,"Ġrelig":3508,"Ġnorma":3509,"ĠmÃ¡ximo":3510,"Ġesfuer":3511,"Ġenla":3512,"Ġmunicipal":3513,"ĠGrupo":3514,"jal":3515,"cripciÃ³n":3516,"ciona":3517,"VA":3518,"gre":3519,"endas":3520,"Ġsufici":3521,"Ġpul":3522,"icante":3523,"Ã¡laga":3524,"Ġacceder":3525,"Ġcic":3526,"ĠtecnologÃŃa":3527,"ngel":3528,"ogle":3529,"Ġoportunidad":3530,"ĠBil":3531,"Ġsuperior":3532,"Ġren":3533,"Ġpadre":3534,"Ġdebido":3535,"Ġexiste":3536,"Ġportavoz":3537,"ĠbÃ¡s":3538,"ĠpresentaciÃ³n":3539,"Ġobserv":3540,"Ġrod":3541,"Ġdenunci":3542,"Ġdedic":3543,"ĠopciÃ³n":3544,"uncia":3545,"Ġencima":3546,"tamientos":3547,"ĠconstrucciÃ³n":3548,"Ġprincipio":3549,"ĠÃ¡mbito":3550,"Son":3551,"Ġinterpre":3552,"poner":3553,"ican":3554,"Ġefectos":3555,"ines":3556,"Ġorigen":3557,"udo":3558,"Ġpide":3559,"Ġsomos":3560,"titud":3561,"tiago":3562,"este":3563,"Ġutilizar":3564,"Ġagosto":3565,"Ġrecono":3566,"ĠÃºltimas":3567,"Ġviaje":3568,"Ġsoy":3569,"Ġimpa":3570,"Ġperten":3571,"Ġconsidera":3572,"Ġrealizado":3573,"Ġfebrero":3574,"Ġinnov":3575,"Ġnecesidades":3576,"Ġmomentos":3577,"CE":3578,"Ġdeja":3579,"ĠLÃ³pez":3580,"mer":3581,"elas":3582,"Ġcompra":3583,"Ġdemas":3584,"Ġbusca":3585,"her":3586,"Ġbuscar":3587,"ald":3588,"Ġfuerte":3589,"ĠJavier":3590,"Ġblo":3591,"12":3592,"Cas":3593,"Ġvin":3594,"Ġingres":3595,"Ġdan":3596,"Ġadministra":3597,"Durante":3598,"ĠCasa":3599,"Ġcrecimiento":3600,"Ġnegocio":3601,"icada":3602,"Ġ2010":3603,"Ã©di":3604,"Ġplaza":3605,"ificar":3606,"Ġperder":3607,"anÃŃa":3608,"ĠOl":3609,"Ġonline":3610,"Ġconduc":3611,"Ġtratamiento":3612,"Ġreno":3613,"Ġinstalaciones":3614,"tituciÃ³n":3615,"Ġinmedia":3616,"Ġelectoral":3617,"mpoco":3618,"encial":3619,"Ġhacerlo":3620,"Ġhijo":3621,"ĠSol":3622,"ĠreuniÃ³n":3623,"Ġnoticia":3624,"Ã³l":3625,"ĠdiseÃ±":3626,"riÃ³":3627,"ĠFernÃ¡ndez":3628,"Ġbon":3629,"ĠeconomÃŃa":3630,"Ġestilo":3631,"Ã¡lez":3632,"Ãĳ":3633,"Ġcambios":3634,"apa":3635,"arago":3636,"Ġbaja":3637,"adamente":3638,"Ġsiete":3639,"Ġcob":3640,"Ġfunciones":3641,"Ġpagar":3642,"ĠeconÃ³mico":3643,"Ġlucha":3644,"Ġnota":3645,"Ġamena":3646,"ĠprotecciÃ³n":3647,"ĠPas":3648,"ĠComisiÃ³n":3649,"remos":3650,"Ġidentif":3651,"Ġnecesita":3652,"ĠvÃŃdeo":3653,"rump":3654,"Ġ>":3655,"Ġofrec":3656,"tron":3657,"ĠenseÃ±":3658,"Ġejecu":3659,"Ġcelebra":3660,"Ġsupuesto":3661,"Ġestrateg":3662,"arte":3663,"usk":3664,"ĠSE":3665,"Ġ2011":3666,"Ġprogramas":3667,"San":3668,"Ã©nero":3669,"Ġobtener":3670,"Pu":3671,"Ġconsumo":3672,"capa":3673,"iel":3674,"Ġdisco":3675,"Ġprob":3676,"US":3677,"Ġvuelta":3678,"Ġperm":3679,"Ġresponsabilidad":3680,"Ġ2019":3681,"Ġinvestig":3682,"Ġpil":3683,"Ġtampoco":3684,"Ġapun":3685,"ĠhabÃŃan":3686,"Ġtrabajos":3687,"Ġ2015":3688,"ĠtelÃ©":3689,"Ġacciones":3690,"ins":3691,"Ġsosten":3692,"Sus":3693,"quitec":3694,"Ġsignifica":3695,"ĠUniÃ³n":3696,"ĠtelÃ©f":3697,"Ġpropi":3698,"Ġfem":3699,"Ġfamilias":3700,"cidente":3701,"Ġvivienda":3702,"ampl":3703,"ĠDer":3704,"jud":3705,"Ġmaterial":3706,"Ġcliente":3707,"ezas":3708,"ĠFer":3709,"ps":3710,"ĠHis":3711,"ĠcomÃºn":3712,"ĠVic":3713,"Ġpers":3714,"ĠPrem":3715,"zan":3716,"tidos":3717,"Ġalterna":3718,"antil":3719,"Ġaver":3720,"ĠVer":3721,"ĠpequeÃ±o":3722,"dalu":3723,"ARA":3724,"Ġcris":3725,"Ġhas":3726,"Ġcocina":3727,"Ġestrel":3728,"aya":3729,"Ġfra":3730,"ĠanÃ¡lisis":3731,"Ġescrito":3732,"ĠCÃ¡":3733,"pol":3734,"Ġreferencia":3735,"Ġconstru":3736,"orme":3737,"lamentar":3738,"Ġtran":3739,"quiler":3740,"ĠRu":3741,"ĠallÃŃ":3742,"Ġdesapar":3743,"Ġtram":3744,"Ġnorte":3745,"Ġacud":3746,"ciaciones":3747,"Ġtierra":3748,"Ġemail":3749,"Ġcentral":3750,"teles":3751,"tarios":3752,"ĠSuper":3753,"teras":3754,"Ġejercicio":3755,"Ġx":3756,"TR":3757,"ĠfunciÃ³n":3758,"erÃ¡":3759,"Ġsorprend":3760,"iere":3761,"alu":3762,"ko":3763,"icÃ³":3764,"Ġdistintos":3765,"Di":3766,"Ġjugadores":3767,"vers":3768,"ĠEcon":3769,"ner":3770,"ĠfÃºtbol":3771,"Ġfuentes":3772,"ĠelÃ©ctr":3773,"ĠTribunal":3774,"Ġcausa":3775,"queda":3776,"Ġdio":3777,"Ġpremio":3778,"itad":3779,"Ġ27":3780,"iales":3781,"ĠLib":3782,"Ġministro":3783,"DE":3784,"Ġproteg":3785,"ĠCab":3786,"QU":3787,"ĠÃ©poca":3788,"Ġlocales":3789,".,":3790,"Ġdev":3791,"Ġrecog":3792,"ĠenergÃŃa":3793,"Ġsuel":3794,"alidades":3795,"Ġclave":3796,"onda":3797,"Ġconvertir":3798,"ĠGonzÃ¡lez":3799,"IM":3800,"Ġmundial":3801,"Ġalma":3802,"ĠUnivers":3803,"desa":3804,"entro":3805,"Ġentidades":3806,"Ġsum":3807,"Ġconocimiento":3808,"Ġpid":3809,"ij":3810,"ĠCultura":3811,"menes":3812,"Ġocasiones":3813,"uridad":3814,"ĠVil":3815,"Ġceleb":3816,"Ġcrea":3817,"!!!":3818,"Ġdura":3819,"ĠCU":3820,"pia":3821,"Gracias":3822,"idor":3823,"Ġambiente":3824,"umen":3825,"IB":3826,"jeros":3827,"ick":3828,"ĠÃģngel":3829,"aragoza":3830,"alla":3831,"Ġdesarrollar":3832,"ĠCantabria":3833,"ĠFeder":3834,"Ġdescubr":3835,"Ġraz":3836,"ĠPartido":3837,"Ġgrande":3838,"LE":3839,"sas":3840,"Ġtenga":3841,"Ġfalle":3842,"ĠcrÃŃ":3843,"Ġmonta":3844,"reas":3845,"Ġdistintas":3846,"ĠexposiciÃ³n":3847,"Ġglo":3848,"ĠJus":3849,"alizada":3850,"Ġmitad":3851,"ICA":3852,"Ġhechos":3853,"ĠinversiÃ³n":3854,"ag":3855,"Ġcompromiso":3856,"ĠBer":3857,"caciones":3858,"Ġquin":3859,"Ġavis":3860,"Ġvivir":3861,"ĠRed":3862,"Ġfir":3863,"recu":3864,"ĠÃ³r":3865,"glÃ©s":3866,"Ġens":3867,"avid":3868,"Nues":3869,"iestas":3870,"Ġdia":3871,"Ġdeclara":3872,"Ġentrega":3873,"ĠFrancia":3874,"tana":3875,"ĠposiciÃ³n":3876,"ĠRam":3877,"cÃ©s":3878,"culos":3879,"Ġconvoc":3880,"ĠAsturi":3881,"Ġnegoci":3882,"ĠactuaciÃ³n":3883,"Ġclase":3884,"Ġclases":3885,"11":3886,"ĠQUE":3887,"Ġnumeros":3888,"Ġsistemas":3889,"Ġgri":3890,"Rec":3891,"Ġpresentado":3892,"emoria":3893,"IEN":3894,"Ġcultural":3895,"ĠPrim":3896,"Ġconcen":3897,"Ġarch":3898,"Ġdiario":3899,"Ġdesarroll":3900,"Ġvictoria":3901,"igura":3902,"ĠCos":3903,"entis":3904,"Ġlig":3905,"Ġquieren":3906,"Ġincluye":3907,"Ġcontrario":3908,"ĠMÃ©":3909,"paciÃ³n":3910,"Ġsede":3911,"ÂŃ":3912,"ĠrazÃ³n":3913,"ĠLoc":3914,"ĠhabrÃ¡":3915,"Ġmol":3916,"ierte":3917,"ĠAud":3918,"Ġfondo":3919,"vieron":3920,"ieran":3921,"ella":3922,"Ġpiel":3923,"ĠvehÃŃculos":3924,"Â©":3925,"Ġ2012":3926,"Ġinicio":3927,"tancias":3928,"Ġcora":3929,"ĠMurcia":3930,"Ġpien":3931,"icados":3932,"ulas":3933,"Ġtraslad":3934,"ĠselecciÃ³n":3935,"ĠregiÃ³n":3936,"Ġcump":3937,"Ġpun":3938,"ĠDis":3939,"ĠSantiago":3940,"Ã©rez":3941,"crip":3942,"Ġinteg":3943,"Ġjef":3944,"Ġmensaje":3945,"Ġcuyo":3946,"Ġpago":3947,"ĠdÃ©c":3948,"Ġsatis":3949,"Ġmatr":3950,"pera":3951,"Ġdepend":3952,"iego":3953,"Ġfinales":3954,"Ġcree":3955,"Ġeta":3956,"ĠSeguridad":3957,"Ġocho":3958,"ĠMay":3959,"LO":3960,"obern":3961,"adal":3962,"ĠespecÃŃf":3963,"ioso":3964,"ĠGuardia":3965,"ĠocasiÃ³n":3966,"Ġregres":3967,"Ġproduci":3968,"Ġcompl":3969,"DespuÃ©s":3970,"quÃ©":3971,"ĠInstituto":3972,"Ġterr":3973,"Ġdebes":3974,"Asimismo":3975,"Ġentender":3976,"Ġvisi":3977,"ĠAt":3978,"Ġregul":3979,"Ġcomerciales":3980,"vesti":3981,"ox":3982,"quir":3983,"Ã³digo":3984,"Ġpartes":3985,"ĠWeb":3986,"Ġpublicado":3987,"Ġtiempos":3988,"Ã¡tica":3989,"etas":3990,"Ġcita":3991,"Ġmejora":3992,"Ġmunicipio":3993,"ĠallÃ¡":3994,"rique":3995,"ĠMÃ¡laga":3996,"ĠDios":3997,"Ġvalores":3998,"ĠtelevisiÃ³n":3999,"Ã©nd":4000,"rantes":4001,"ĠautÃ³n":4002,"ĠAL":4003,"lev":4004,"Ġelementos":4005,"Ġllegado":4006,"Ġhici":4007,"ork":4008,"isa":4009,"mentar":4010,"genti":4011,"tral":4012,"itales":4013,"dan":4014,"partamento":4015,"Ġcandidato":4016,"Ġciudades":4017,"Ġimag":4018,"ĠkilÃ³me":4019,"ĠFernando":4020,"Ġjugador":4021,"Ġagentes":4022,"erte":4023,"Ġvotos":4024,"ĠAdministraciÃ³n":4025,"ĠDa":4026,"estruc":4027,"rÃŃguez":4028,"del":4029,"Ġcontrato":4030,"ĠsoluciÃ³n":4031,"Ġmenores":4032,"Ġahor":4033,"Ġcompleto":4034,"Ġpareja":4035,"Ġemb":4036,"Ãļ":4037,"Ãł":4038,"Ġperfil":4039,"med":4040,"ĠAlber":4041,"Ġmovimiento":4042,"Ġefecto":4043,"ĠJor":4044,"Ġimpuls":4045,"cla":4046,"Ġllamada":4047,"ĠartÃŃculos":4048,"amplona":4049,"ĠprÃ¡ctica":4050,"Ġgo":4051,"Ġdim":4052,"Ġayudar":4053,"Ġmilitar":4054,"viv":4055,"ĠSer":4056,"Ġ60":4057,"ĠRiv":4058,"Ġsecretario":4059,"ĠAb":4060,"Ġdomici":4061,"??":4062,"Ġcerr":4063,"Ġcalles":4064,"lano":4065,"Ġcarre":4066,"ĠllegÃ³":4067,"ĠcuestiÃ³n":4068,"Ġedificio":4069,"mb":4070,"Ġinstituciones":4071,"Ġcomprar":4072,"Ġfron":4073,"Ġinvers":4074,"ĠbÃºs":4075,"Ġjuicio":4076,"Ġconoc":4077,"pero":4078,"Ġexpresa":4079,"ĠvÃŃctimas":4080,"EMA":4081,"Ġobjetivos":4082,"Ġhabla":4083,"Ġpropuestas":4084,"rupciÃ³n":4085,"hab":4086,"Ġhon":4087,"DO":4088,"Ġescol":4089,"Ġencuentran":4090,"Ac":4091,"Ã³nd":4092,"Ġideas":4093,"ĠestarÃ¡":4094,"Pues":4095,"Ġnaturaleza":4096,"ĠParlamento":4097,"Ġdoble":4098,"Ġpuerta":4099,"Ġis":4100,"idado":4101,"Ġprofesor":4102,"direc":4103,"isiones":4104,"Ġreforma":4105,"Ġcoin":4106,"ÃŃos":4107,"Ã©g":4108,"iter":4109,"ĠMas":4110,"Ġsuelo":4111,"rue":4112,"Ġvoto":4113,"Ġcompleta":4114,"Ġbanda":4115,"Ġfundamental":4116,"Ġcompartir":4117,"arial":4118,"Ġpleno":4119,"ĠSociedad":4120,"Ġformas":4121,"tique":4122,"Ġrenov":4123,"Ġentrar":4124,"Ġfamos":4125,"Ġrepresenta":4126,"tres":4127,"Ġluc":4128,"Puedes":4129,"ĠRE":4130,"Per":4131,"telig":4132,"Ġprimeras":4133,"Ġlevan":4134,"ĠUE":4135,"15":4136,"Ġpocos":4137,"ĠRio":4138,"Ġsil":4139,"Ġpensar":4140,"ĠgÃ©nero":4141,"Ġalred":4142,"ĠautonÃ³m":4143,"Ġmarco":4144,"Ġdirectamente":4145,"eso":4146,"Ġpregunta":4147,"Ġ2009":4148,"Ġcampe":4149,"Ġretir":4150,"Ġpruebas":4151,"Ġcoloc":4152,"Ġcomunicado":4153,"ĠRodrÃŃguez":4154,"ĠPopular":4155,"VI":4156,"ĠPÃ©rez":4157,"Ġdol":4158,"ĠHos":4159,"Ġmesa":4160,"Ġintrodu":4161,"Ġrecibido":4162,"Ġconcurso":4163,"tÃ¡s":4164,"Ġreclam":4165,"mania":4166,"ADO":4167,"Ġps":4168,"zada":4169,"Ġbor":4170,"Ġelev":4171,"Ġconsigu":4172,"edra":4173,"ĠEmpres":4174,"Ġiba":4175,"Ġconflic":4176,"ĠEE":4177,"18":4178,"ĠJesÃºs":4179,"Ġnavegador":4180,"san":4181,"tador":4182,"Ġrealmente":4183,"Ġexcel":4184,"Ġqueremos":4185,"ff":4186,"Ġquieres":4187,"Ġcuentas":4188,"ĠVi":4189,"AquÃŃ":4190,"Ġperiodo":4191,"Ġtre":4192,"Ġnotif":4193,"ĠGoogle":4194,"CÃ³mo":4195,"Ġinformado":4196,"Ca":4197,"ph":4198,"tiles":4199,"ĠXX":4200,"ĠFacebook":4201,"ormente":4202,"Ã³nde":4203,"ragÃ³n":4204,"ismos":4205,"Ã©tica":4206,"Ġpropie":4207,"cepciÃ³n":4208,"Ġvac":4209,"Ġfiscal":4210,"Ġextran":4211,"ĠGalicia":4212,"Ġobliga":4213,"Ġfru":4214,"Ġcuales":4215,"ĠAsturias":4216,"Ġhttps":4217,"Ġprevia":4218,"Ġfiesta":4219,"cciÃ³n":4220,"ju":4221,"Ġquiero":4222,"IG":4223,"Ġges":4224,"ices":4225,"Ġllama":4226,"ont":4227,"Ġvoy":4228,"Ġtaller":4229,"odas":4230,"ĠdistribuciÃ³n":4231,"ĠÃŃn":4232,"Ġexplicado":4233,"Ġargu":4234,"jado":4235,"genier":4236,"Ġrelaciones":4237,"istir":4238,"Ġusar":4239,"cidos":4240,"Ġdeporte":4241,"Ã©gimen":4242,"Estos":4243,"Quier":4244,"ĠniÃ±o":4245,"hor":4246,"Ġconocido":4247,"itarios":4248,"iental":4249,"Ġeres":4250,"ĠpequeÃ±os":4251,"ĠBr":4252,"como":4253,"olÃ³gico":4254,"ĠTele":4255,"Ġ2008":4256,"Ġmodelos":4257,"Ġlic":4258,"Ġdiferencia":4259,"Ġprefer":4260,"Ġav":4261,"ciden":4262,"tell":4263,"quer":4264,"ĠEjecu":4265,"Ġevento":4266,"Ġequ":4267,"Tu":4268,"ĠNueva":4269,"ĠBlan":4270,"anes":4271,"ificado":4272,"Ġvelo":4273,"Ġcru":4274,"Ġded":4275,"xico":4276,"ki":4277,"Ġtercera":4278,"Ġpersonales":4279,"Ġfan":4280,"ĠZaragoza":4281,"Ġrefle":4282,"Ã¡fico":4283,"AT":4284,"Ġmiles":4285,"Ġposib":4286,"Ġmag":4287,"iados":4288,"ĠThe":4289,"ware":4290,"Ġsocialista":4291,"ficial":4292,"ival":4293,"cito":4294,"Ġreflex":4295,"ĠPolÃŃtica":4296,"Ġpuertas":4297,"Ġverd":4298,"arca":4299,"rans":4300,"mentaciÃ³n":4301,"ĠBuen":4302,"Ġjuez":4303,"Ġtransporte":4304,"Ġasum":4305,"Ġrue":4306,"Mi":4307,"zca":4308,"Ġ198":4309,"gal":4310,"ĠIglesias":4311,"ĠtÃ©cnicos":4312,"Ġdirecta":4313,"Ġdispu":4314,"Ġdu":4315,"trum":4316,"Ġpeor":4317,"Ġfirma":4318,"Ġanimales":4319,"teriormente":4320,"UU":4321,"Ch":4322,"ĠII":4323,"Ġfrecu":4324,"Ġaumento":4325,"Ġactuaciones":4326,"Ġlugares":4327,"%,":4328,"Ġabandon":4329,"ĠpequeÃ±a":4330,"Ġaven":4331,"Ġsuerte":4332,"gul":4333,"Ġrad":4334,"cun":4335,"ÃŃm":4336,"Ġcuya":4337,"ritÃ¡n":4338,"Ġbre":4339,"Ġpuestos":4340,"Ġinau":4341,"Ġacces":4342,"Ġtas":4343,"Ġreb":4344,"bao":4345,"ega":4346,"Ġbienes":4347,"ĠtÃº":4348,"ĠdeberÃŃa":4349,"unid":4350,"Ġcomercial":4351,"Ġvoz":4352,"Ġ80":4353,"Ġlimpi":4354,"ĠCruz":4355,"af":4356,"Ġq":4357,"ĠclÃ¡s":4358,"cons":4359,"ee":4360,"ĠtelÃ©fono":4361,"Ġprincipios":4362,"imas":4363,"Ġmec":4364,"Ġlegal":4365,"Ġgenerales":4366,"ĠVen":4367,"ĠPS":4368,"Ġdificul":4369,"ĠEspaÃ±ola":4370,"Ġpie":4371,"ĠDepor":4372,"RES":4373,"Pres":4374,"Ġhumanos":4375,"Ġul":4376,"inado":4377,"menta":4378,"talia":4379,"Ġtotalmente":4380,"ĠpodÃŃa":4381,"Ġcuan":4382,"Ġblanco":4383,"Ġhu":4384,"ĠkilÃ³metros":4385,"Ġabierto":4386,"Ġplataforma":4387,"ĠquiÃ©n":4388,"ÃŃr":4389,"jerÃŃa":4390,"tig":4391,"Ġiniciado":4392,"Ġconec":4393,"Ġmarcas":4394,"yas":4395,"Ġempi":4396,"anda":4397,"Sal":4398,"Ġoper":4399,"ĠcorazÃ³n":4400,"Ġajus":4401,"ombr":4402,"EMAIL":4403,"ĠEsc":4404,"Ġtradicional":4405,"ĠreparaciÃ³n":4406,"dar":4407,"Ġgobern":4408,"40":4409,"ĠcategorÃŃa":4410,"Ġsupon":4411,"terios":4412,"Ġturismo":4413,"tuales":4414,"Ġpretende":4415,"Ġsob":4416,"Ġfines":4417,"ĠPala":4418,"Ġescenario":4419,"estre":4420,"ĠRos":4421,"leta":4422,"cionados":4423,"CIA":4424,"Ġsentencia":4425,"onia":4426,"Ġoriginal":4427,"doba":4428,"Ġafirma":4429,"ral":4430,"pectos":4431,"Ġintereses":4432,"Ġadquir":4433,"Ġconvers":4434,"ped":4435,"cad":4436,"AC":4437,"Ġmues":4438,"Ġentrevista":4439,"weet":4440,"Ġpedir":4441,"Ġdeleg":4442,"Ġcircu":4443,"Ġvino":4444,"Ġsusp":4445,"Ġcompro":4446,"Ġconvocatoria":4447,"Ġhogar":4448,"Ġ29":4449,"lid":4450,"Ġpublicidad":4451,"Ġayudas":4452,"ĠbÃºsqueda":4453,"Ġfich":4454,"ĠMedio":4455,"Ġmantiene":4456,"Ġterceros":4457,"Ġintentar":4458,"Ġpodido":4459,"ĠMunicip":4460,"tÃ©n":4461,"Ġemprend":4462,"ĠGeneralitat":4463,"ĠEdi":4464,"biÃ³":4465,"ĠMartÃŃnez":4466,"Ġobjeto":4467,"Ġvuelve":4468,"amble":4469,"Ġtitular":4470,"idencia":4471,"ĠEsta":4472,"Ġactos":4473,"AB":4474,"ĠpÃ©r":4475,"Ġarquitec":4476,"Ġestadounid":4477,"ĠGranada":4478,"Ġpuedo":4479,"ĠSalud":4480,"Ġdemocracia":4481,"Ġhuel":4482,"tien":4483,"Ġalquiler":4484,"tander":4485,"oo":4486,"Ġfase":4487,"ĠInf":4488,"Ġsof":4489,"Ġadelante":4490,"uno":4491,"Ġdemasiado":4492,"Ġtoma":4493,"Ġfondos":4494,"ĠDiputaciÃ³n":4495,"Ġcompa":4496,"Ġtriun":4497,"Ġimpos":4498,"ĠseÃ±alado":4499,"ĠServicio":4500,"ren":4501,"ĠNO":4502,"Ġhubiera":4503,"ĠÂ»":4504,"ensiÃ³n":4505,"madura":4506,"quiera":4507,"Ġcumplir":4508,"Ġhospital":4509,"Ġvacaciones":4510,"Hab":4511,"Ġterritorio":4512,"Ġderro":4513,"ĠIb":4514,"ĠcÃ¡n":4515,"Ġfamiliar":4516,"Ġincend":4517,"ray":4518,"Ġpedido":4519,"ologÃŃas":4520,"ĠPatr":4521,"Ġadop":4522,"Deb":4523,"Ġpost":4524,"Eso":4525,"arrollo":4526,"ĠBel":4527,"Ġcomprome":4528,"Ġoc":4529,"Ġformul":4530,"TER":4531,"Ġpase":4532,"ĠPamplona":4533,"Ġinteresante":4534,"ĠDavid":4535,"Ġapenas":4536,"ĠAna":4537,"dio":4538,"Ġpresupuesto":4539,"Ġpropios":4540,"Ġconci":4541,"ĠbritÃ¡n":4542,"ĠtrÃ¡fico":4543,"Man":4544,"Ġamigo":4545,"Ġasegurado":4546,"Ġvesti":4547,"Ġrespec":4548,"Ġmala":4549,"Ġestudiantes":4550,"Ġvisitar":4551,"ĠjurÃŃd":4552,"Ġposibles":4553,"mano":4554,"Ġcapaz":4555,"ĠAlm":4556,"ĠutilizaciÃ³n":4557,"echos":4558,"Ġespacios":4559,"Ġefica":4560,"Ġfigura":4561,"ort":4562,"Ġquiz":4563,"VE":4564,"americ":4565,"Ġsacar":4566,"ivacidad":4567,"Ġagres":4568,"Ġpelo":4569,"ĠDan":4570,"ĠJusticia":4571,"ĠintervenciÃ³n":4572,"Ġaspectos":4573,"tus":4574,"Ġconfianza":4575,"Publ":4576,"gram":4577,"Ġparcial":4578,"Ġcompeten":4579,"Ġdejado":4580,"cÃ³n":4581,"ecn":4582,"Ġfuerzas":4583,"ĠprÃ³xima":4584,"Ġinternet":4585,"Ġllegada":4586,"gencias":4587,"16":4588,"Ġcontras":4589,"ĠpÃºblicas":4590,"Ġpalabra":4591,"ade":4592,"ĠMuseo":4593,"Ġnie":4594,"teratura":4595,"Ġtorno":4596,"ĠBal":4597,"Ġacerca":4598,"Estas":4599,"Ġindependentis":4600,"ĠÂ·":4601,"dicos":4602,"Ġreservados":4603,"Ġarti":4604,"Ġat":4605,"Ġlegisla":4606,"Ġopciones":4607,"uta":4608,"Ġdomicilio":4609,"utr":4610,"Ġcircun":4611,"Ġojos":4612,"Ġevalu":4613,"Ġrenta":4614,"ĠPlaza":4615,"Ġesfuerzo":4616,"Ġsuf":4617,"ĠSec":4618,"Ġpais":4619,"UM":4620,"ĠExtre":4621,"ĠVas":4622,"ĠpÃ¡ginas":4623,"Ġresulta":4624,"Ġcuadr":4625,"Ġwww":4626,"laz":4627,"Ġcm":4628,"tible":4629,"icepres":4630,"Ġmic":4631,"TOR":4632,"Ġestaban":4633,"Ġsustitu":4634,"Ġdetec":4635,"censo":4636,"Ġfiestas":4637,"Cada":4638,"ĠfinanciaciÃ³n":4639,"rile":4640,"Ġja":4641,"tid":4642,"ĠcontinuaciÃ³n":4643,"Ġcarta":4644,"ong":4645,"Ġfuncionamiento":4646,"Ġenfermedad":4647,"Ġvie":4648,"Ġexten":4649,"Ġsiguen":4650,"Ġol":4651,"Ġcomunidades":4652,"Ġpeso":4653,"ĠcelebraciÃ³n":4654,"eli":4655,"Ġacord":4656,"Ġdocumento":4657,"Ġdestino":4658,"ĠinglÃ©s":4659,"ticias":4660,"ĠcaracterÃŃsticas":4661,"ĠBur":4662,"ĠRec":4663,"ĠPl":4664,"iares":4665,"Ġparlamentar":4666,"Ġviviendas":4667,"iblioteca":4668,"Ġrecuerda":4669,"Reci":4670,"Ġindustria":4671,"ĠAragÃ³n":4672,"Ġsepar":4673,"%.":4674,"ĠcatalÃ¡n":4675,"........":4676,"Ġconvertido":4677,"Ġbarrio":4678,"Ġdemanda":4679,"ame":4680,"Ġinternacionales":4681,"ĠJun":4682,"Ġmantenimiento":4683,"Ġpena":4684,"Ġmaes":4685,"Ġpopul":4686,"diz":4687,"mÃ¡tica":4688,"Ġvelocidad":4689,"Ġamar":4690,"Ġsatisf":4691,"Ġacaba":4692,"Ġanteriores":4693,"ilo":4694,"orca":4695,"Ġdelante":4696,"Ġtipos":4697,"Ġido":4698,"Ġjuegos":4699,"Ġ*":4700,"dura":4701,"Ġdenuncia":4702,"Ġconcreto":4703,"ĠCOM":4704,"Ġmoda":4705,"Ġrepe":4706,"Ġexpertos":4707,"ðŁ":4708,"mitir":4709,"Ġmiedo":4710,"ml":4711,"unda":4712,"Ġsala":4713,"raestruc":4714,"ecuciÃ³n":4715,"Ġital":4716,"ĠSem":4717,"ĠprÃ³ximos":4718,"table":4719,"Ġsindica":4720,"Ġmemoria":4721,"ife":4722,"Ġmez":4723,"Ġ197":4724,"olÃ³gica":4725,"arma":4726,"PE":4727,"Ġjustif":4728,"Ġcursos":4729,"Ġdenomin":4730,"Ġdeclaraciones":4731,"ĠcompaÃ±eros":4732,"ĠperiÃ³":4733,"Ġestrategia":4734,"ll":4735,"ĠVI":4736,"Ġarro":4737,"ĠEr":4738,"Ġnega":4739,"Ġlanz":4740,"Ġintelig":4741,"ĠTe":4742,"Ġreducir":4743,"igles":4744,"amp":4745,"ÃŃsimo":4746,"Ġpantalla":4747,"ĠRioja":4748,"Ġbloque":4749,"arla":4750,"Ġrece":4751,"oder":4752,"Ġadi":4753,"Ġrend":4754,"Ġpeti":4755,"ardo":4756,"Ġexplo":4757,"Ġtarje":4758,"Ġconden":4759,"ĠcrÃ©di":4760,"Pa":4761,"Ġmunicipales":4762,"laciones":4763,"triz":4764,"25":4765,"Ġsocialistas":4766,"Ġplazas":4767,"ry":4768,"Ġmismas":4769,"GT":4770,"uencias":4771,"Ġabog":4772,"Ġregional":4773,"Algun":4774,"Ġcoste":4775,"Ġobstante":4776,"Ġtempera":4777,"Porque":4778,"itÃ©":4779,"Ġplanta":4780,"Ġtrabajando":4781,"istros":4782,"ĠON":4783,"ity":4784,"idamente":4785,"Ġaparece":4786,"Ġllamado":4787,"yos":4788,"Ġdon":4789,"Ã§":4790,"Ġrey":4791,"Ġcome":4792,"Ġrespeto":4793,"Ġazul":4794,"Ġurb":4795,"Ġgolpe":4796,"Ġganas":4797,"tillo":4798,"Ġpremios":4799,"ime":4800,"raf":4801,"ĠRom":4802,"Ġconsecuencia":4803,"tx":4804,"Ġ70":4805,"Ġfas":4806,"abel":4807,"Ġapuesta":4808,"Ġtrib":4809,"ĠTurismo":4810,"Ġnegro":4811,"Ã³rdoba":4812,"Ġmarc":4813,"Ġconcentr":4814,"TU":4815,"onte":4816,"inales":4817,"Ġmateriales":4818,"Ġep":4819,"ĠLeg":4820,"gÃ¼":4821,"ĠautorizaciÃ³n":4822,"Ġfrances":4823,"Ġcircuns":4824,"ĠTÃ©cn":4825,"Ver":4826,"ĠEjecutivo":4827,"Ġalcanzar":4828,"Ġjefe":4829,"Ġandalu":4830,"EspaÃ±a":4831,"Ġdiferente":4832,"BA":4833,"Ġdestacado":4834,"ĠAlf":4835,"ĠvehÃŃculo":4836,"SS":4837,"Ġprom":4838,"Ġ2013":4839,"Ġhumano":4840,"Co":4841,"Ġofertas":4842,"Ġpasada":4843,"ÃŃda":4844,"Ġconcur":4845,"ciente":4846,"ĠevoluciÃ³n":4847,"ĠHum":4848,"ĠespectÃ¡":4849,"Ġconced":4850,"VÃŃdeo":4851,"ĠtÃ©rminos":4852,"Ġpreguntas":4853,"teros":4854,"unya":4855,"Ġasisten":4856,"drÃ¡":4857,"ĠharÃ¡":4858,"ĠClub":4859,"ablemente":4860,"Ġquedado":4861,"Ġetapa":4862,"Ġamplia":4863,"Ġrevista":4864,"Ġelegir":4865,"Ġfom":4866,"ĠTorre":4867,"Ġapre":4868,"Ġhabitual":4869,"uegos":4870,"ĠprisiÃ³n":4871,"ĠVir":4872,"Ġcuarto":4873,"tigo":4874,"Ġfer":4875,"ĠDÃŃaz":4876,"ye":4877,"Ġ2014":4878,"IER":4879,"Ġjuz":4880,"ĠCer":4881,"Ġaler":4882,"cimientos":4883,"Ġprotes":4884,"Ġconcierto":4885,"iber":4886,"17":4887,"ĠPuig":4888,"Ġescribir":4889,"ĠAz":4890,"Ġtratar":4891,"ĠdeberÃ¡":4892,"onato":4893,"Ġnavegando":4894,"Ġaper":4895,"Ġhac":4896,"Ġcompor":4897,"ĠBilbao":4898,"Ġdescan":4899,"ĠAN":4900,"tienen":4901,"Ġpropiedad":4902,"Ġdisponible":4903,"ĠTecn":4904,"Ġdicha":4905,"Fue":4906,"estiones":4907,"Ġinstrum":4908,"Ġreto":4909,"enciana":4910,"Ġconseguido":4911,"mÃ¡n":4912,"Ġexterior":4913,"Ġlograr":4914,"Ġlejos":4915,"Ġpersonajes":4916,"Ġparticipantes":4917,"ĠReino":4918,"Ġcertif":4919,"entales":4920,"ebas":4921,"pÃºbl":4922,"13":4923,"ĠÃ©ste":4924,"Ġurg":4925,"Ġhaga":4926,"Ġescuela":4927,"Ġigles":4928,"viÃ³":4929,"Ġexped":4930,"Ġactualmente":4931,"ĠAlemania":4932,"Ġalrededor":4933,"mites":4934,"ĠComer":4935,"Ġaus":4936,"Hasta":4937,"Ġbuenas":4938,"ificados":4939,"pes":4940,"alizados":4941,"Ġfis":4942,"ĠpublicaciÃ³n":4943,"capacidad":4944,"venciones":4945,"eÃ±a":4946,"king":4947,"Ġherramientas":4948,"Ġprior":4949,"Ġconex":4950,"ĠresoluciÃ³n":4951,"Ġhipo":4952,"Ġreform":4953,"Ġigualdad":4954,"Ġcolores":4955,"Ġpac":4956,"Ġcualquiera":4957,"Ġvers":4958,"Ġasoci":4959,"Ġ35":4960,"Ġbeneficios":4961,"Ġpresidenta":4962,"Ġabrir":4963,"tenciÃ³n":4964,"grama":4965,"Ġdestaca":4966,"at":4967,"Ġdefend":4968,"oj":4969,"Ġestructura":4970,"Ġdelito":4971,"Ġmur":4972,"Ġ90":4973,"Ġconsol":4974,"ĠConstituciÃ³n":4975,"Ġ&":4976,"ĠlÃŃneas":4977,"Ġtamb":4978,"ĠhistÃ³rico":4979,"Ġtama":4980,"Ġniveles":4981,"Ġcomida":4982,"ĠOb":4983,"orÃŃas":4984,"Ġderiv":4985,"ĠPaÃŃs":4986,"Ġresponsables":4987,"enado":4988,"Ġmadrile":4989,"Ġunidad":4990,"gados":4991,"cir":4992,"iana":4993,"Ġsuficiente":4994,"Ġdicen":4995,"iosa":4996,"Ġpese":4997,"Ġcampos":4998,"Ġradio":4999,",...":5000,"pal":5001,"amblea":5002,"Ġtex":5003,"land":5004,"itados":5005,"Ġdibu":5006,"Ġ31":5007,"Ay":5008,"Ġcolectivo":5009,"Ġfotograf":5010,"Ġrepresentantes":5011,"Ġrural":5012,"Ġlarga":5013,"ĠâĢĶ":5014,"ĠProvin":5015,"Ġprevisto":5016,"Ġimpar":5017,"Ġcond":5018,"ĠEusk":5019,"Lu":5020,"ĠdeclaraciÃ³n":5021,"tima":5022,"Ġparque":5023,"aman":5024,"blos":5025,"ĠFu":5026,"ĠExtremadura":5027,"Ġfacilitar":5028,"ĠDesarrollo":5029,"Ġdocumen":5030,"ĠtÃ©cnica":5031,"ĠasociaciÃ³n":5032,"Ġcompon":5033,"erop":5034,"enaje":5035,"ĠLiga":5036,"Ġsome":5037,"Ġimpacto":5038,"Hace":5039,"ĠoperaciÃ³n":5040,"Ġhayan":5041,"obili":5042,"Ġgestion":5043,"Ġgarantizar":5044,"Ġileg":5045,"Ġms":5046,"Ġgastos":5047,"ĠFiscal":5048,"Ġindependencia":5049,"aremos":5050,"cina":5051,"Ġrecorrido":5052,"Ġerr":5053,"ĠPremio":5054,"Ġposibilidades":5055,"Ġmotor":5056,"ĠinstalaciÃ³n":5057,"tios":5058,"ĠValle":5059,"Ġteniendo":5060,"lada":5061,"Ġtienda":5062,"Ġdando":5063,"ĠrÃ©gimen":5064,"Ġprac":5065,"Ġapos":5066,"ENT":5067,"Ġace":5068,"ĠPen":5069,"ĠTea":5070,"Ġcumple":5071,"Ġpronto":5072,"ĠmÃŃnimo":5073,"pado":5074,"Ġacuer":5075,"Ġaltura":5076,"ĠDon":5077,"Mientras":5078,"UL":5079,"ĠdÃ³nde":5080,"Ġdificultad":5081,"Ġarran":5082,"Ġestuvo":5083,"Ġoptim":5084,"Ġdiversas":5085,"Ġpend":5086,"Ġdiversos":5087,"Ġlis":5088,"ĠestÃ¡s":5089,"mana":5090,"ĠSi":5091,"ĠatrÃ¡s":5092,"Ġnovela":5093,"ĠpromociÃ³n":5094,"ayo":5095,"Ġsuperfici":5096,"ello":5097,"ĠCanarias":5098,"Ġherman":5099,"Jos":5100,"uevo":5101,"Ġentradas":5102,"ienen":5103,"ĠhabrÃŃa":5104,"ĠdÃ³":5105,"Ġaccidente":5106,"ĠBe":5107,"Ġpacientes":5108,"demont":5109,"ÃŃtulos":5110,"Ġperdido":5111,"ĠMancha":5112,"Ġdetalles":5113,"ĠMÃ©xico":5114,"org":5115,"cind":5116,"Ġconform":5117,"Cor":5118,"Ġbenefici":5119,"ĠintenciÃ³n":5120,"Ġreiv":5121,"ĠBol":5122,");":5123,"ecÃŃa":5124,"Ġdorm":5125,"Ġbomb":5126,"Ġaplicaciones":5127,"trÃ¡s":5128,"Ġbio":5129,"Ġinfantil":5130,"tudes":5131,"Ġnovedades":5132,"bil":5133,"Ġmusical":5134,"Ġataque":5135,"Serv":5136,"Ġfinalmente":5137,"ĠCO":5138,"Ġoportun":5139,"ĠEuropeo":5140,"aa":5141,"right":5142,"ker":5143,"____":5144,"Ġprocedimiento":5145,"ĠcÃ³digo":5146,"Ġprocesos":5147,"Ġjusticia":5148,"ĠIglesia":5149,"jan":5150,"ĠDel":5151,"ys":5152,"Ġreac":5153,"Ġfamiliares":5154,"jera":5155,"ĠdiÃ¡":5156,"Ġalguno":5157,"publ":5158,"Ġerror":5159,"Ġfirm":5160,"eciÃ³":5161,"Ġtengan":5162,"Bar":5163,"Ġsoluciones":5164,"eÃ±o":5165,"Ġempezar":5166,"Ġand":5167,"ĠVilla":5168,"ĠSER":5169,"uelas":5170,"DI":5171,"Ġacre":5172,"ĠCAS":5173,"ĠdemocrÃ¡":5174,"ondo":5175,"ples":5176,"ĠGa":5177,"Ġatrac":5178,"60":5179,"Ġincluyendo":5180,"quina":5181,"ĠfrancÃ©s":5182,"ĠServicios":5183,"ĠtÃ©cnicas":5184,"Ġautoridades":5185,"ĠpolicÃŃa":5186,"Ġdesem":5187,"ĠmÃ¡xima":5188,"Ġcomprend":5189,"Ġconcepto":5190,"Ġteatro":5191,"pÃºblica":5192,"Ġacum":5193,"Ġdeuda":5194,"bamos":5195,"ĠIndustr":5196,"ĠcÃ¡r":5197,"Ġnueve":5198,"Ġefici":5199,"Ġmagn":5200,"Ġrealiza":5201,"iaciÃ³n":5202,"posiciones":5203,"ĠcontinÃºa":5204,"ĠAmb":5205,"Ġingresos":5206,"keting":5207,"Ġarm":5208,"Ġsentir":5209,"eles":5210,"ĠsecciÃ³n":5211,"ĠOn":5212,"ielo":5213,"Ġrespond":5214,"Or":5215,"14":5216,"ĠtendrÃ¡n":5217,"timos":5218,"Ġton":5219,"Ġjudicial":5220,"Ġaso":5221,"ienes":5222,"abora":5223,"ĠPOR":5224,"Ġllevado":5225,"gran":5226,"Ġnecesaria":5227,"ĠAutÃ³n":5228,"Ġhija":5229,"Ġcorrespondiente":5230,"Ġmulti":5231,"Ġartista":5232,"Ġsectores":5233,"@@":5234,"ĠÃº":5235,"ĠSantander":5236,"lle":5237,"Ġdiscurso":5238,"ĠadministraciÃ³n":5239,"Ġnormal":5240,"Ġconcejal":5241,"html":5242,"Ġindependiente":5243,"gna":5244,"anzas":5245,"ĠvisiÃ³n":5246,"aldad":5247,"ĠFestival":5248,"jor":5249,"Ġempa":5250,"Ġbuenos":5251,"Ġinver":5252,"Ġdudas":5253,"Ġdecisiones":5254,"hn":5255,"ĠpelÃŃculas":5256,"dis":5257,"Ġbur":5258,"Ġdefender":5259,"Ġconvir":5260,"Ġdecidido":5261,"rÃ¡f":5262,"Ġnormas":5263,"tÃŃ":5264,"cienda":5265,"ajas":5266,"Ġentra":5267,"Ġrefug":5268,"ĠTrans":5269,"Ġenti":5270,"ĠTOD":5271,"enar":5272,"ladolid":5273,"gentina":5274,"22":5275,"Ã¡nica":5276,"Ġaproxim":5277,"ĠPARA":5278,"ĠNorte":5279,"ĠseÃ±ala":5280,"Ġcomba":5281,"Ġconstante":5282,"ĠpodrÃŃan":5283,"Ġfuego":5284,"Ġprofund":5285,"Pued":5286,"icciÃ³n":5287,"Puede":5288,"Ġacabar":5289,"tol":5290,"Incl":5291,"ĠCatalunya":5292,"ĠElec":5293,"Ġpudo":5294,"tismo":5295,"Ġmiembro":5296,"Ġgobier":5297,"DA":5298,"pp":5299,"Ġresca":5300,"ĠDu":5301,"quilib":5302,"vel":5303,"ledo":5304,"Ġcoincid":5305,"Ġpeligros":5306,"Ġambas":5307,"Ġperiodista":5308,"Ġbuscando":5309,"Ġrevis":5310,"Ã¨":5311,"ĠMi":5312,"Ġanunciado":5313,"logÃŃa":5314,"cab":5315,"ive":5316,"SE":5317,"Ġglobal":5318,"Ġaprender":5319,"ofÃŃa":5320,"Ġprogres":5321,"Ġrit":5322,"Ġexac":5323,"Ġcontempor":5324,"Ġcumplimiento":5325,"ĠSur":5326,"Ġlin":5327,"ĠgeneraciÃ³n":5328,"ĠEste":5329,"ou":5330,"Ġreduci":5331,"ĠÃ¡n":5332,"rer":5333,"ĠUnido":5334,"ĠInvesti":5335,"Ġdec":5336,"ĠFor":5337,"Ġaquellas":5338,"ĠValladolid":5339,"ĠCE":5340,"Ġgenera":5341,"ĠrecuperaciÃ³n":5342,"deras":5343,"III":5344,"idez":5345,"Ġidentidad":5346,"Ġgrave":5347,"yright":5348,"tadores":5349,"usa":5350,"ĠTrab":5351,"ĠAC":5352,"Ġcoches":5353,"ulta":5354,"Ġplaya":5355,"tum":5356,"ĠGre":5357,"Ġseg":5358,"ĠPRO":5359,"24":5360,"Ġdolor":5361,"tÃºa":5362,"Ġsimplemente":5363,"Ġrequier":5364,"Ġrecuperar":5365,"Ġtren":5366,"Ġsexual":5367,"Ġautores":5368,"Ġeditorial":5369,"Ġnombr":5370,"Â¡Â¡":5371,"ĠTh":5372,"Ġdocumentos":5373,"tag":5374,"ĠFin":5375,"Ġaumentar":5376,"Madrid":5377,"Uno":5378,"Ġenlace":5379,"Ġreconocimiento":5380,"ĠAlcal":5381,"Ġregal":5382,"Ġnecesarios":5383,"bus":5384,"Ġsalv":5385,"Ġhabitaciones":5386,"igrantes":5387,"ĠpodrÃ¡s":5388,"ĠBas":5389,"iores":5390,"Ġacad":5391,"uos":5392,"Ġabre":5393,"ĠAgu":5394,"Ġorganizaciones":5395,"Ġconsejero":5396,"Ġrelacionados":5397,"Ġdistancia":5398,"ĠÃ¡r":5399,"ota":5400,"ĠHospital":5401,"Ġguard":5402,"ĠMic":5403,"Ġlengu":5404,"ĠMos":5405,"Ġcierre":5406,"Ġcadena":5407,"Ġverde":5408,"Ġconfer":5409,"Ġasistencia":5410,"Ġmarav":5411,"ĠespaÃ±olas":5412,"Ġllevan":5413,"Ġkm":5414,"Emp":5415,"ane":5416,"ull":5417,"Ġcasas":5418,"ua":5419,"Ġrecurso":5420,"echas":5421,"Actu":5422,"yecto":5423,"Ġorien":5424,"ĠMunicipal":5425,"Ġinfer":5426,"ĠprÃ¡cticas":5427,"ADOS":5428,"ance":5429,"Ġsuje":5430,"ebasti":5431,"Ġresolver":5432,"Ġrequis":5433,"Ġcorto":5434,"cida":5435,"Ġadelan":5436,"Ġotor":5437,"Ġincid":5438,"ĠcorrupciÃ³n":5439,"ĠRivera":5440,"Ġvicepres":5441,"Ġartistas":5442,"quez":5443,"Ġdiver":5444,"Ġgastron":5445,"Ġformar":5446,"ĠCÃ³rdoba":5447,"ierno":5448,"ecuencias":5449,"Ġlectura":5450,"Ġsituado":5451,"Ġilustr":5452,"tacular":5453,"Ġdispar":5454,"ĠConsejerÃŃa":5455,"Ġciencia":5456,"Ġses":5457,"uelos":5458,"Ġquedan":5459,"ĠItalia":5460,"Ġexcep":5461,"Ġcomenz":5462,"bur":5463,"Ġconm":5464,"Ġmanda":5465,"PP":5466,"Ġpueblos":5467,"Ġsale":5468,"Ġliteratura":5469,"ĠReyes":5470,"):":5471,"riba":5472,"ĠCopa":5473,"tware":5474,"Ġesperar":5475,"Ġfutbol":5476,"ĠEm":5477,"timo":5478,"Ġsorpres":5479,"tz":5480,"tuvo":5481,"ivamente":5482,"ĠdejÃ³":5483,"Ġbases":5484,"oria":5485,"Ġhubo":5486,"Ġsola":5487,"Ġalimentos":5488,"ĠDirecciÃ³n":5489,"ĠImp":5490,"----":5491,"ĠbaÃ±o":5492,"arnos":5493,"Ġgalle":5494,"Ġplanes":5495,"inter":5496,"Ġdefinitiva":5497,"usia":5498,"Ġmovil":5499,"ĠrÃŃo":5500,"Ġideal":5501,"Ġgrado":5502,"Ġfres":5503,"Ġnormativa":5504,"Ġfemen":5505,"premo":5506,"Ġmensajes":5507,"Ġaumen":5508,"ni":5509,"Ġcreado":5510,"olina":5511,"itamos":5512,"Ġhomenaje":5513,"Ġeventos":5514,"Buen":5515,"Ġmunicipios":5516,"Ġhuman":5517,"ĠOs":5518,"Ġurban":5519,"Ġescuchar":5520,"ĠMad":5521,"Ġdispone":5522,"ĠAlicante":5523,"ack":5524,"ĠSin":5525,"ĠProfes":5526,"emia":5527,".\"":5528,"Ġguar":5529,"Ġgasto":5530,"vas":5531,"ET":5532,"Ġpiezas":5533,"Ġreciente":5534,"Ġsuma":5535,"Ġviajes":5536,"Ġantigua":5537,"Ġestadounidense":5538,"let":5539,"Ġinfraestruc":5540,"ivas":5541,"ĠcÃ¡rcel":5542,"Ob":5543,"Ġsabemos":5544,"Ġreca":5545,"Ġanal":5546,"ĠLena":5547,"Sobre":5548,"Gu":5549,"Ġpropias":5550,"Ã³gica":5551,"ĠcomenzÃ³":5552,"irÃ¡n":5553,"Ġconsecuencias":5554,"Ġboca":5555,"quÃŃa":5556,"ĠGas":5557,"Ã¡ticos":5558,"ĠNavidad":5559,"ĠseÃ±or":5560,"Ġenorme":5561,"ĠTrump":5562,"Ġconsulta":5563,"Ġaplic":5564,"Ġafron":5565,"ĠTa":5566,"Ins":5567,"ĠtamaÃ±o":5568,"Ġbici":5569,"ĠTr":5570,"ĠÃģlv":5571,"Ġcorpor":5572,"Ġcifra":5573,"Ġpaz":5574,"Ġjusto":5575,"Ġanuncios":5576,"ĠTeatro":5577,"Ġrecibe":5578,"ĠdÃ³lares":5579,"Ġcamp":5580,"ĠRadio":5581,"mor":5582,"Dos":5583,"ĠHern":5584,"ĠSebasti":5585,"ĠBanco":5586,"Ġantiguo":5587,"Ġsituaciones":5588,"Ġoro":5589,"Ġquerido":5590,"Ġ2007":5591,"iciales":5592,"pira":5593,"tidas":5594,"elipe":5595,"Ġdefien":5596,"Val":5597,"ĠChina":5598,"Ġpobre":5599,"He":5600,"igna":5601,"Ju":5602,"ĠdetrÃ¡s":5603,"dÃŃa":5604,"Ġrem":5605,"ĠRafa":5606,"Ġprecisamente":5607,"Ġadmi":5608,"Ġcuestiones":5609,"Ġcarretera":5610,"Ġmadera":5611,"Ġiglesia":5612,"Ġasunto":5613,"sal":5614,"Ġanuncio":5615,"Ġaquella":5616,"Ġescal":5617,"ĠrepresentaciÃ³n":5618,"Ġpopulares":5619,"Ġespeciales":5620,"!!!!":5621,"Ġafirm":5622,"Ġlider":5623,"Quieres":5624,"ĠLond":5625,"Ġisla":5626,"Ġhistorias":5627,"Ġvivo":5628,"IDAD":5629,"Ġfestival":5630,"gaciones":5631,"Ġcritic":5632,"Ġextraordin":5633,"ters":5634,"Ġjard":5635,"Ġtro":5636,"Ġherramienta":5637,"Pod":5638,"Ġimposible":5639,"ĠSala":5640,"RC":5641,"ĠrealizaciÃ³n":5642,"Ġocul":5643,"ÃŃp":5644,"Ġmotivos":5645,"Ġentend":5646,"Ġfol":5647,"ĠYork":5648,"legio":5649,"Ġidi":5650,"Ġciclo":5651,"Ġdebemos":5652,"Ġpag":5653,"Ġincremento":5654,"Ġbarr":5655,"ĠMariano":5656,"Ġsiquiera":5657,"Ġrestaur":5658,"Ġrecordar":5659,"ĠCÃ¡diz":5660,"Fin":5661,"ĠpresiÃ³n":5662,"ĠEconomÃŃa":5663,"Ġexistencia":5664,"ĠSecre":5665,"ĠautÃ©n":5666,"tillas":5667,"ĠCarmen":5668,"Ġrazones":5669,"ĠTra":5670,"ĠcomisiÃ³n":5671,"izada":5672,"nidad":5673,"Ġlengua":5674,"Ġbra":5675,"Ġabord":5676,"Ġeuropeo":5677,"gica":5678,"Ġsolicitud":5679,"Ġcompues":5680,"ĠParÃŃs":5681,"Ġestan":5682,"Ġeuropeos":5683,"Ġvein":5684,"SÃŃ":5685,"cesiÃ³n":5686,"ĠmÃ©dico":5687,"ulo":5688,"Ġsexo":5689,"Ġmodalidad":5690,"Ġescas":5691,"ĠInformaciÃ³n":5692,"ÃŃdeos":5693,"Ġrestaurante":5694,"Ġartes":5695,"Ġpsic":5696,"luencia":5697,"ĠLocal":5698,"Ġvotar":5699,"Hola":5700,"ĠtecnologÃŃas":5701,"Ã¡is":5702,"Ġesco":5703,"Ġbara":5704,"ĠFederaciÃ³n":5705,"ĠcolecciÃ³n":5706,"operaciÃ³n":5707,"Ġros":5708,"Ġcanal":5709,"Ġras":5710,"Ġvul":5711,"ICO":5712,"ferencia":5713,"ato":5714,"uebles":5715,"Ġrema":5716,"21":5717,"avera":5718,"Ġza":5719,"Ġenfren":5720,"ĠVasco":5721,"Ġapartado":5722,"igur":5723,"ĠLAS":5724,"Ġabierta":5725,"Ġregistro":5726,"ĠAp":5727,"Ġventas":5728,"Ġcompetencia":5729,"ĠPortu":5730,"GA":5731,"Ġjuven":5732,"Del":5733,"Ġconviv":5734,"Ġaudio":5735,"Ġproduce":5736,"Ġvive":5737,"ĠÂ©":5738,"Ġrevistas":5739,"leza":5740,"tista":5741,"Ġdur":5742,"Ġnegocios":5743,"ĠrÃ¡pido":5744,"pin":5745,"Ġfras":5746,"Ġespectacular":5747,"iÃ±o":5748,"ĠRub":5749,"Ġprotagonista":5750,"Ġformato":5751,"ĠEscuela":5752,"uelva":5753,"iversario":5754,"usto":5755,"ibuy":5756,"ĠSupremo":5757,"IV":5758,"Ġpublicar":5759,"ĠaÃ±adido":5760,"Ġmercados":5761,"sen":5762,"Ã©mica":5763,"-,":5764,"ĠMal":5765,"Ġeuropea":5766,"Ġasi":5767,"icultura":5768,"ÃŃsticos":5769,"Ġreda":5770,"Ġvoluntad":5771,"Ġofrecen":5772,"Ġconfirm":5773,"Ġimpuestos":5774,"berg":5775,"ĠÃ¡reas":5776,"rÃ¡s":5777,"Ġpasos":5778,"ĠcelebrarÃ¡":5779,"Ġindustrial":5780,"ĠTweet":5781,"ĠAlba":5782,"Ġtranquil":5783,"pen":5784,"Ġtelef":5785,"500":5786,"Ġcontam":5787,"Ġapertura":5788,"ini":5789,"IF":5790,"Ġimpu":5791,"Ġadjud":5792,"Ġaloj":5793,"Ġfen":5794,"Ġfuente":5795,"Ã³rm":5796,"uena":5797,"crito":5798,"Ġadv":5799,"Ġaerop":5800,"Ġvues":5801,"ĠZapa":5802,"Ġcanciones":5803,"Ġpatrimonio":5804,"cipl":5805,"Ġmostrar":5806,"Ġescrita":5807,"MP":5808,"Ġdistribu":5809,"Ġllu":5810,"Ġcalor":5811,"Ġconflicto":5812,"Ġcosta":5813,"Ġcomerci":5814,"ĠParque":5815,"Ġafi":5816,"ĠÃ©sta":5817,"uf":5818,"ĠXV":5819,"Ġrecoge":5820,"ĠcÃ¡mara":5821,"Ġcontinuar":5822,"Ġestim":5823,"ultos":5824,"ĠPubl":5825,"Ġactor":5826,"ks":5827,"itor":5828,"ĠPuigdemont":5829,"Ġentrenador":5830,"Ġcerc":5831,"Ġdecor":5832,"Ġexplicar":5833,"Ġaspecto":5834,"Ġdefens":5835,"Ġcolegio":5836,"ĠÌ":5837,"GO":5838,"Ġgrab":5839,"Todas":5840,"bla":5841,"eca":5842,"Ġreivind":5843,"erva":5844,"Ġpasando":5845,"Ġgratuita":5846,"istema":5847,"Ġcel":5848,"Ġminuto":5849,"ADA":5850,"Ã©tico":5851,"iri":5852,"ĠciudadanÃŃa":5853,"zco":5854,"Ġpros":5855,"ĠForm":5856,"Ġruta":5857,"Ġcenten":5858,"ĠSh":5859,"Ġvisitantes":5860,"Ġsubray":5861,"Ġplaneta":5862,"Ġinvestidura":5863,"Ġdich":5864,"Ã³mez":5865,"Ġutiliza":5866,"ĠJorge":5867,"ĠAlonso":5868,"ĠRES":5869,"Ġ%":5870,"Estamos":5871,"Ġband":5872,"Ġorganizado":5873,"ĠhÃ¡":5874,"Ġganado":5875,"Ġpuso":5876,"Ġasesor":5877,"ang":5878,"Ġdiscu":5879,"Gran":5880,"ĠMÃ¡s":5881,"'s":5882,"ĠÃ³":5883,"ambio":5884,"ĠRamÃ³n":5885,"Ã©ndum":5886,"ĠOrgan":5887,"Ġcomercio":5888,"Ġjornadas":5889,"Ġpond":5890,"Ġsuele":5891,"ĠAudiencia":5892,"ĠGuerra":5893,"Ã³sito":5894,"Ġplantilla":5895,"Ġsilen":5896,"undo":5897,"Ġcoordin":5898,"Pos":5899,"Ġropa":5900,"Bus":5901,"ĠCur":5902,"Ġhonor":5903,"Ġimplan":5904,"Ġencanta":5905,"ĠDerecho":5906,"23":5907,"Ġindica":5908,"Ġpref":5909,"ĠHacienda":5910,"99":5911,"Ġescuch":5912,"Ġindicado":5913,"quia":5914,"Ġritmo":5915,"Ġcarga":5916,"Ġ500":5917,"Ġlav":5918,"ĠIr":5919,"ĠinnovaciÃ³n":5920,"Ġintens":5921,"Ġdesac":5922,"Ġcuentan":5923,"amanca":5924,"IR":5925,"Ġparo":5926,"Ġencontrado":5927,"Creo":5928,"Queda":5929,"ĠPA":5930,"ĠSil":5931,"ĠLO":5932,"Ġdisponibles":5933,"Ġcubier":5934,"Ġindirec":5935,"ĠhacÃŃa":5936,"Ġvincul":5937,"Ġconocimientos":5938,"Ġcomienza":5939,"Ġcuad":5940,"Ġempleados":5941,"Ġaplicar":5942,"Ġjam":5943,"ĠrÃ¡pida":5944,"SA":5945,"tiquetas":5946,"Ġpersonaje":5947,"Ġdiputados":5948,"ĠLondres":5949,"Ġprivado":5950,"Ġdigo":5951,"ĠMujer":5952,"IP":5953,"UP":5954,"Ġdetenido":5955,"Fu":5956,"Ġpeligro":5957,"Ġnaturales":5958,"Ġestablecer":5959,"ciar":5960,"icina":5961,"Ġsalvo":5962,"ueve":5963,"Ġsimilar":5964,"Ġopiniones":5965,"Ġcantante":5966,"Ġfl":5967,"Ġnacionales":5968,"Ġreserva":5969,"ĠTV":5970,"ĠCÃ¡mara":5971,"Ġvaya":5972,"Ġpresentes":5973,"ĠSO":5974,"https":5975,"Ġconstruir":5976,"Can":5977,"Ġ300":5978,"ĠAlberto":5979,"ĠHotel":5980,"igital":5981,"Ġpacto":5982,"Ġtrim":5983,"ĠBor":5984,"Ġprofesores":5985,"isos":5986,"Ġsuperficie":5987,"ĠcaÃŃda":5988,"amento":5989,"ĠPuerto":5990,"ĠpeticiÃ³n":5991,"ty":5992,"ĠpasÃ³":5993,"Ġrig":5994,"Ġenf":5995,"abe":5996,"Ġorganiza":5997,"Ġcontratos":5998,"Ġhicieron":5999,"Ġindic":6000,"tena":6001,"Ġduro":6002,"70":6003,"mÃ¡s":6004,"Cam":6005,"Ġformulario":6006,"Ġquedar":6007,"Ġlimpieza":6008,"ĠdiÃ¡logo":6009,"ĠcÃ¡ncer":6010,"Ġeliminar":6011,"ĠPalacio":6012,"Ġsorte":6013,"Ġrum":6014,"Ġempresarial":6015,"ĠtÃ©rmino":6016,"ĠpÃ©rdida":6017,"rael":6018,"ĠvÃŃctima":6019,"Ġarreg":6020,"Ġsocios":6021,"arr":6022,"Ġsolicitar":6023,"ss":6024,"Ġhablando":6025,"Ġtuv":6026,"Ġgana":6027,"Ġprome":6028,"Ġhid":6029,"ÃįA":6030,"ĠcompaÃ±ÃŃas":6031,"emas":6032,"Cre":6033,"inaria":6034,"Ġestablecido":6035,"enerife":6036,"tecas":6037,"ĠEmpleo":6038,"Ġoperaciones":6039,"ĠHistoria":6040,"26":6041,"ĠSo":6042,"Ġconvierte":6043,"Ġvender":6044,"28":6045,"rir":6046,"Ã³gico":6047,"Ġacredi":6048,"ĠexpresiÃ³n":6049,"Ġvisitas":6050,"Ġhabitantes":6051,"Nuestro":6052,"Ġcristi":6053,"Ġasociaciones":6054,"ĠJul":6055,"Ġaguas":6056,"Ãºsica":6057,"ĠestÃ©n":6058,"izaje":6059,"Ġhumor":6060,"Ġtasa":6061,"Ã±ar":6062,"Ġcomenzar":6063,"tistas":6064,"CIONES":6065,"Ġactuales":6066,"Ġclara":6067,"Ġleyes":6068,"Ġprivacidad":6069,"Ġbi":6070,"ĠreferÃ©ndum":6071,"ĠMel":6072,"tieron":6073,"grÃ¡fica":6074,"ĠComunicaciÃ³n":6075,"centa":6076,"Ġaun":6077,"Ġaprobado":6078,"Ġplantas":6079,"Ġdispositivo":6080,"indo":6081,"Ġalmacen":6082,"Ġespecie":6083,"Ġpublicada":6084,"Ġarriba":6085,"Ġnombres":6086,"Os":6087,"ude":6088,"Ġedificios":6089,"Ã©u":6090,"ĠespectÃ¡culo":6091,"porta":6092,"Ġacepta":6093,"ĠValenciana":6094,"ĠcanciÃ³n":6095,"Ġcuidado":6096,"lectual":6097,"egas":6098,"Ġocurre":6099,"Ġdirigido":6100,"Ġterreno":6101,"Ġexperiencias":6102,"pecial":6103,"ĠFelipe":6104,"ĠSus":6105,"ĠProtecciÃ³n":6106,"Ġemerg":6107,"Ġsuperar":6108,"TOS":6109,"ĠllevÃ³":6110,"Ġrueda":6111,"ĠtenÃŃan":6112,"ld":6113,"Ġdecre":6114,"ĠMen":6115,"Ã§a":6116,"ĠOrden":6117,"inario":6118,"Ġenter":6119,"Ġhacerse":6120,"Ġperfecto":6121,"ĠconexiÃ³n":6122,"ĠLav":6123,"zz":6124,"Ġliter":6125,"ĠEEUU":6126,"endario":6127,"ĠgustarÃŃa":6128,"RAN":6129,"Ġsup":6130,"Ġilus":6131,"ĠAmÃ©rica":6132,"Somos":6133,"Ġsel":6134,"dr":6135,"Ġreconoce":6136,"istido":6137,"Ġalternativa":6138,"Ġescolar":6139,"Ġtrabaja":6140,"ĠcondiciÃ³n":6141,"venir":6142,"mes":6143,"Ġveo":6144,"sar":6145,"Ġtantos":6146,"ĠEspa":6147,"Pe":6148,"Ġenviar":6149,"untamientos":6150,"Ġano":6151,"Ġlectores":6152,"ĠCanaria":6153,"Ġrelev":6154,"alta":6155,"Ġparticulares":6156,"ĠdocumentaciÃ³n":6157,"Ġdiputado":6158,"Ġdesen":6159,"Ġabra":6160,"habil":6161,"Ġretras":6162,"aliciÃ³n":6163,"ĠSuperior":6164,"ucciÃ³n":6165,"ĠquedÃ³":6166,"Ġdro":6167,"up":6168,"Ġcontes":6169,"ĠSemana":6170,"Ġmicro":6171,"ĠGab":6172,"ĠsÃŃn":6173,"Ġpreci":6174,"ĠFiscalÃŃa":6175,"Ġhuelga":6176,"sin":6177,"Direc":6178,"ĠSebastiÃ¡n":6179,"Ġinvestigadores":6180,"Ġpermiten":6181,"2019":6182,"Ġconvenio":6183,"Ġparticipa":6184,"Ġpropone":6185,"Ġoportunidades":6186,"ĠsueÃ±o":6187,"ĠAmbiente":6188,"Ġaj":6189,"Ġrecuerdo":6190,"ionales":6191,"ĠvÃŃdeos":6192,"Ġamplio":6193,"ĠEuskadi":6194,"icano":6195,"Ġvuelto":6196,"Ġrep":6197,"lesc":6198,"Ġdispuesto":6199,"crim":6200,"ĠHol":6201,"Ġpractic":6202,"Ġtranspar":6203,"Ġplena":6204,"ĠCuen":6205,"ĠGÃ³mez":6206,"ZA":6207,"ĠCamp":6208,"frica":6209,"MO":6210,"usos":6211,"ÃŃri":6212,"ĠDef":6213,"Ġcubr":6214,"Ġrese":6215,"ejas":6216,"ĠProvincial":6217,"Ġrecordado":6218,"ham":6219,"tizaciÃ³n":6220,"ĠinstituciÃ³n":6221,"cra":6222,"Ġconsta":6223,"ĠejecuciÃ³n":6224,"mÃ¡ticas":6225,"ĠSierra":6226,"ĠComercio":6227,"ĠIU":6228,"Ġlegis":6229,"Ġelegido":6230,"ĠduraciÃ³n":6231,"Ġcarr":6232,"ificaciones":6233,"ĠMundo":6234,"Ġperspec":6235,"Siempre":6236,"cionamiento":6237,"Ġarmas":6238,"Ġaniversario":6239,"Ġdebajo":6240,"Ġequilib":6241,"Ġconoce":6242,"Ġacuerdos":6243,"oya":6244,"ĠÌģ":6245,"45":6246,"Ġdelan":6247,"olÃ³gicos":6248,"ĠniÃ±a":6249,"ĠRepÃºblica":6250,"otos":6251,"lica":6252,"80":6253,"Solo":6254,"Ni":6255,"ĠdÃ©cadas":6256,"quen":6257,"Ġcoti":6258,"ĠquerÃŃa":6259,"Ġclim":6260,"Ġculturales":6261,"Prim":6262,"Ġnotificaciones":6263,"Ġporcenta":6264,"letas":6265,"Ġrevel":6266,"Ġimper":6267,"gus":6268,"Ġproducido":6269,"ĠETA":6270,"**":6271,"Ġcargos":6272,"teria":6273,"ĠâĤ¬":6274,"Ġlistas":6275,"Ġcau":6276,"Ġsangre":6277,"Ġpropietario":6278,"Ġimprescind":6279,"ĠDo":6280,"ĠCosta":6281,"ĠmÃºlti":6282,"ĠBale":6283,"Ã¡mica":6284,"Ġ45":6285,"dicionado":6286,"teo":6287,"Ġapunta":6288,"Hemos":6289,"ĠtrÃ¡":6290,"Ġperfectamente":6291,"Ġrefor":6292,"Ġves":6293,"IX":6294,"alia":6295,"ĠreducciÃ³n":6296,"Ġcelebrar":6297,"Ġprotagonistas":6298,"gano":6299,"ĠPerson":6300,"Reg":6301,"ĠJer":6302,"Ġescritor":6303,"ore":6304,"ky":6305,"Ġaleg":6306,"Ġincu":6307,"empl":6308,"Ġsirve":6309,"Ġsaben":6310,"oras":6311,"GU":6312,"rano":6313,"Ġhar":6314,"Ġprove":6315,"Ġimporte":6316,"Ġmam":6317,"Ġcabal":6318,"ĠtradiciÃ³n":6319,"rup":6320,"grÃŃa":6321,"ate":6322,"Ġmanifies":6323,"Ġexam":6324,"esos":6325,"Ġcandidatos":6326,"TRA":6327,"ezuela":6328,"ĠAdministra":6329,"Ġaceite":6330,"Ġrequer":6331,":'":6332,"ERO":6333,"Ġjuntos":6334,"gamos":6335,"JosÃ©":6336,"rada":6337,"Ġcelebrado":6338,"ÃŃsima":6339,"Ġpresupuestos":6340,"tellano":6341,"ĠSerg":6342,"Ġmenti":6343,"Ġelector":6344,"Ġcompletamente":6345,"Ġinven":6346,"cuen":6347,"ĠeconÃ³micos":6348,"Ġsurg":6349,"Ġtiendas":6350,"Ġportal":6351,"grÃ¡fico":6352,"Ġproducir":6353,"iamente":6354,"hu":6355,"ĠVox":6356,"...)":6357,"Ġtej":6358,"lÃ©tico":6359,"Ġdue":6360,"Ġgusto":6361,"Ġdismin":6362,"Ġing":6363,"genda":6364,"enses":6365,"ĠpequeÃ±as":6366,"ĠToledo":6367,"Ġparecer":6368,"Ġsober":6369,"Ġconciertos":6370,"Ġdelitos":6371,"Ġmostrado":6372,"Ġepis":6373,"Ġlidera":6374,"tella":6375,"Ġ32":6376,"ĠBus":6377,"est":6378,"mm":6379,"todos":6380,"ALES":6381,"Ġcatalana":6382,"Ġexcelente":6383,"Ġdesarrollado":6384,"Ġprestig":6385,"icales":6386,"izaciones":6387,"Ġmecan":6388,"olv":6389,"ĠestaciÃ³n":6390,"Ġescena":6391,"Ġestad":6392,"Ġpartida":6393,"Ġestudiar":6394,"ĠMil":6395,"Ġiniciar":6396,"Ġperiodistas":6397,"Ġescon":6398,"Tiene":6399,"ĠTenerife":6400,"Ġlegislatura":6401,"Ġmanifiesta":6402,"Ġ+]":6403,"Ġbru":6404,"ĠdaÃ±os":6405,"SÃ³lo":6406,"caso":6407,"Ġdedicado":6408,"ĠTierra":6409,"viso":6410,"Ġclima":6411,"ĠPi":6412,"gnacio":6413,"omento":6414,"Ġcontexto":6415,"Ciudad":6416,"gunda":6417,"ĠMir":6418,"Ġtarjeta":6419,"ĠAR":6420,"Ġllegan":6421,"Ġcontribu":6422,"ash":6423,"ĠUP":6424,"cultad":6425,"Ġinstan":6426,"zgo":6427,"Ġcriterios":6428,"Ġprol":6429,"Ġdesper":6430,"Ġtrayec":6431,"Ġrequisitos":6432,"Ã©rcito":6433,"Segu":6434,"Ġvolumen":6435,"Ġdirectora":6436,"Ġanimal":6437,"Ġic":6438,"Ġgoles":6439,"Ġcompetencias":6440,"ood":6441,"ĠIsabel":6442,"Ġrefiere":6443,"Toda":6444,"ĠDiario":6445,"Ġsegundos":6446,"Ġbil":6447,"Ġabsoluta":6448,"ĠPÃºblica":6449,"Ġposterior":6450,"viamente":6451,"Ġorgul":6452,"Ġtendencia":6453,"ĠcrÃ©dito":6454,"tn":6455,"Ġestrellas":6456,"cib":6457,"icen":6458,"Ġran":6459,"Ġestrella":6460,"tano":6461,"rito":6462,"ĠGra":6463,"ĠVicente":6464,"ĠlÃŃderes":6465,"tarÃ¡n":6466,"Ġapell":6467,"ĠprÃ¡cticamente":6468,"Ġcitada":6469,"36":6470,"Ġtransform":6471,"olucion":6472,"Ġdesplaz":6473,"Ġexpul":6474,"Ġpiso":6475,"ĠdÃ©cada":6476,"TM":6477,"Ġordenador":6478,"ĠcompeticiÃ³n":6479,"Servicio":6480,"Ġfunciona":6481,"Ġfeliz":6482,"cÃ³":6483,"Ġmargen":6484,"ĠSeÃ±":6485,"terna":6486,"Ġdeseo":6487,"amor":6488,"Ġsubida":6489,"venida":6490,"nar":6491,"Ġdescubrir":6492,"ĠFe":6493,"ĠTom":6494,"Ġempieza":6495,"Ġreconocer":6496,"Ġcatalanes":6497,"ĠaÃ±adir":6498,"Ġocup":6499,"Ġafectados":6500,"fi":6501,"ecreto":6502,"Ġbancos":6503,"ĠfotografÃŃa":6504,"ley":6505,"Ġtelevis":6506,"Ġacumul":6507,"Ġunidades":6508,"Ġsencillo":6509,"\":":6510,"Tenemos":6511,"Ġcercan":6512,"use":6513,"comun":6514,"Ġrival":6515,"mÃ¡tico":6516,"Na":6517,"dia":6518,"Ġcomienzo":6519,"ĠOficial":6520,"Ġmeta":6521,"Ġdarle":6522,"Ġpocas":6523,"ĠfÃŃsica":6524,"Ġenfermedades":6525,"Ġfechas":6526,"Ġrelacionadas":6527,"ĠprogramaciÃ³n":6528,"Podemos":6529,"Ġsitios":6530,"Ġbanco":6531,"ĠCastell":6532,"Ġtales":6533,"ĠMes":6534,"NV":6535,"ĠAsamblea":6536,"Ġdestacar":6537,"Ġech":6538,"Antes":6539,"tÃº":6540,"ĠvÃ¡l":6541,"Ġinfl":6542,"Ġcorte":6543,"Ġreconocido":6544,"ĠBre":6545,"ĠEd":6546,"cales":6547,"ĠJim":6548,"pla":6549,"Ġtalleres":6550,"andro":6551,"Ġencontramos":6552,"Ġcausas":6553,"Ġdesemp":6554,"Ġhumana":6555,"ĠInvestigaciÃ³n":6556,"Ġanual":6557,"Ġerrores":6558,"Ġdocumental":6559,"ĠIII":6560,"ĠpermitirÃ¡":6561,"ĠtÃŃtulos":6562,"Ġalco":6563,"Ġalcaldesa":6564,"ĠdeberÃ¡n":6565,"Ġvoc":6566,"int":6567,"tÃŃas":6568,"ĠcontrataciÃ³n":6569,"acion":6570,"ÃŃritu":6571,"Ġsoftware":6572,"Ġrobo":6573,"Ġpista":6574,"ĠInterior":6575,"Ġpensiones":6576,"Ġameric":6577,"Ġactitud":6578,"Ġmane":6579,"ĠGe":6580,"Ġriesgos":6581,"tones":6582,"Ġafecta":6583,"Ġinaugur":6584,"Mo":6585,"ĠprÃ³ximas":6586,"Ġdiscapacidad":6587,"Ġprivada":6588,"Cop":6589,"ĠTÃ©cnico":6590,"Ġcaer":6591,",'":6592,"rasil":6593,"ĠCentral":6594,"ĠJohn":6595,"enciales":6596,"Ġrendimiento":6597,"ĠelecciÃ³n":6598,"Ġcerrar":6599,"ĠPresidente":6600,"Ġpropon":6601,"Ġequip":6602,"entarios":6603,"ĠsensaciÃ³n":6604,"Pas":6605,"Ġhoteles":6606,"Ġiniciativas":6607,"ĠhistÃ³rica":6608,"Ġlech":6609,"Ġsosp":6610,"Ġbelleza":6611,"35":6612,"teral":6613,"Ġestablece":6614,"Ġafirmado":6615,"Ã©ndo":6616,"ave":6617,"Ġpermanente":6618,"Ġadolesc":6619,"Ġlicencia":6620,"ĠGer":6621,"Ġcifras":6622,"ĠDomin":6623,"Ġsindicatos":6624,"ĠMac":6625,"cete":6626,"Ġluch":6627,"Ġconcej":6628,"ideos":6629,"clo":6630,"Ġdecidir":6631,"Ġtorn":6632,"Ġefectu":6633,"Ese":6634,"Ãºmenes":6635,"Ġventajas":6636,"Ġpec":6637,"ienta":6638,"Ġcomprobar":6639,"ĠdecÃŃa":6640,"Ġflu":6641,"Ġnumerosos":6642,"Ġabajo":6643,"Ġexperim":6644,"Ġcapaces":6645,"Ġactriz":6646,"dice":6647,"ĠAP":6648,"The":6649,"mu":6650,"Ġlaborales":6651,"Ġgalard":6652,"Ġ--":6653,"hol":6654,"Ġhacemos":6655,"duce":6656,"rÃ³":6657,"Ġconocida":6658,"ĠAcad":6659,"iller":6660,"Ġdispositivos":6661,"ĠSanto":6662,"ĠPos":6663,"ĠPan":6664,"Ġpuerto":6665,"ĠArgentina":6666,"ÃŃmp":6667,"ĠLuc":6668,"Ġprincipalmente":6669,"ĠLog":6670,"ĠEnrique":6671,"Ġconvertirse":6672,"ean":6673,"Vis":6674,"Ġsubir":6675,"Ġfactores":6676,"Muchas":6677,"Ġconsultar":6678,"Sab":6679,"Fran":6680,"ĠCorpor":6681,"Ġsocio":6682,"ĠfenÃ³m":6683,"cionalidad":6684,"Ġincendio":6685,"NO":6686,"ĠRuiz":6687,"Ġmovimientos":6688,"Ġincluido":6689,"tocol":6690,"Ġevidente":6691,"Ġresponder":6692,"ĠSanidad":6693,"Ġpresent":6694,"ĠDiego":6695,"Ġpublica":6696,"?.":6697,"ĠniÃ±as":6698,"Ġinversiones":6699,"Ã³mico":6700,"ĠTODOS":6701,"Ġnutr":6702,"Ġclic":6703,"Ġorganismo":6704,"presiÃ³n":6705,"Ġcarne":6706,"ĠFil":6707,"ĠpresentÃ³":6708,"bos":6709,"Ġdivid":6710,"ograf":6711,"ĠCultural":6712,"ĠGuadal":6713,"ĠAma":6714,"Ġadver":6715,"ĠmÃ³viles":6716,"ĠraÃŃ":6717,"ĠAgr":6718,"Ġenca":6719,"Ġinferior":6720,"Ġcandidatura":6721,"Ġvulner":6722,"Ġdescanso":6723,"ĠRusia":6724,"Ġcoord":6725,"Ġtemporal":6726,"ĠRib":6727,"Ġmuertos":6728,"Ġtrimestre":6729,"Ġparticipado":6730,"Ġpiloto":6731,"FE":6732,"Ġacos":6733,"itud":6734,"ĠSon":6735,"Ġlogrado":6736,"ĠsalÃ³n":6737,"Ġsorpresa":6738,"Ġacercar":6739,"Ġbreve":6740,"estas":6741,"ĠinstantÃ¡n":6742,"Ġelemento":6743,"Ġseguidores":6744,"real":6745,"Ġsuelen":6746,"Ã³logo":6747,"ilio":6748,"Ġhermos":6749,"ĠfotografÃŃas":6750,"ANT":6751,"ĠnegociaciÃ³n":6752,"Ġgar":6753,"Ġanalizar":6754,"Ġemi":6755,"Ġregular":6756,"Ġejempl":6757,"ĠFeria":6758,"ader":6759,"Ġcierta":6760,"29":6761,"ĠestratÃ©":6762,"ĠPortugal":6763,"Ġcircunstancias":6764,"icadas":6765,"ĠCiencias":6766,"iosos":6767,"Ã©nez":6768,"cada":6769,"Nav":6770,"ĠSam":6771,"Ġ196":6772,"ICI":6773,"ucle":6774,"Ġempresarios":6775,"Ġgig":6776,"Ġbeneficio":6777,"Ġfactura":6778,"Ġcuidad":6779,"ĠÃºtil":6780,"Ġcens":6781,"Ġnecesarias":6782,"ifer":6783,"Ġrecientemente":6784,"ĠRober":6785,"JA":6786,"Ġcabe":6787,"Ġchica":6788,".[":6789,"Ġthe":6790,"Ġmodern":6791,"ĠArte":6792,"ĠEstud":6793,"Med":6794,"ria":6795,"ĠJuven":6796,"Ġaprue":6797,"ĠAD":6798,"ĠaÃ±ade":6799,"letÃŃn":6800,"Ġgama":6801,"Ġexperimen":6802,"misiÃ³n":6803,"Ġperiodismo":6804,"ĠÃºnicamente":6805,"Ġintento":6806,"iguraciÃ³n":6807,"ilares":6808,"Ġoficiales":6809,"27":6810,"Ġrequiere":6811,"ERA":6812,"Ġpermiso":6813,"Ġimped":6814,"irmar":6815,"Ġmotiv":6816,"Ġmuestran":6817,"ĠAtlÃ©tico":6818,"Ġmuerto":6819,"Ġepisod":6820,"Ġcaja":6821,"Ġaeropuerto":6822,"pens":6823,"Ġespero":6824,"Ġge":6825,"ĠHoy":6826,"Ġvigil":6827,"Ġactuar":6828,"Ġmaqu":6829,"Ġdetalle":6830,"Ġmach":6831,"ĠPR":6832,"cribir":6833,"ĠComitÃ©":6834,"zon":6835,"Ġaclar":6836,"Ġsilencio":6837,"Ġolvidar":6838,"Otra":6839,"ĠMAR":6840,"ijo":6841,"ĠSalamanca":6842,"Ġfranqu":6843,"Ġcolectivos":6844,"uselas":6845,"Ġinicial":6846,"itÃ³":6847,"Ġproteger":6848,"ĠAS":6849,"ĠDecreto":6850,"Ġhorario":6851,"Ġdesea":6852,"gura":6853,"ĠbotÃ³n":6854,"adajo":6855,"allorca":6856,"Ġzapa":6857,"trato":6858,"Ġconsigue":6859,"ĠplÃ¡s":6860,"Ġrojo":6861,"icin":6862,"ĠhÃ¡bi":6863,"Ante":6864,"Otro":6865,"ĠTrabajo":6866,"Ġatender":6867,"Ġasesina":6868,"adajoz":6869,"ĠprÃ©s":6870,"Algunos":6871,"ombra":6872,"Ġfemin":6873,"Ġpenal":6874,"Ġalcance":6875,"Ġpreten":6876,"Ġnecesitan":6877,"Ġdefiend":6878,"Ġgenerar":6879,"ĠCristina":6880,"ĠSociales":6881,"Ã³rmula":6882,"ĠSte":6883,"uma":6884,"UC":6885,"Ġdefiende":6886,"rÃ©s":6887,"Ġsecund":6888,"ĠÃ¡rbol":6889,"Ã±ez":6890,"ĠgrÃ¡f":6891,"Ġoficina":6892,"aqu":6893,"ĠasegurÃ³":6894,"ĠCD":6895,"ĠVirgen":6896,"Ġpele":6897,"AP":6898,"uraciÃ³n":6899,"Ġfilos":6900,"Ġexige":6901,"Â·":6902,"ĠCampo":6903,"Quer":6904,"ung":6905,"ĠelaboraciÃ³n":6906,"Ġhel":6907,"itarias":6908,"han":6909,"cula":6910,"IOS":6911,"ĠHar":6912,"ĠConf":6913,"oni":6914,"Ġflo":6915,"Ġconsiderado":6916,"Ġdescenso":6917,"ĠPara":6918,"Ġolvid":6919,"atos":6920,"Ġ2006":6921,"Ġexis":6922,"Ġaconte":6923,"Ġnumerosas":6924,"ĠalemÃ¡n":6925,"lav":6926,"Ġmili":6927,"Lle":6928,"Ġanuncia":6929,"Ġpotencial":6930,"ĠconcentraciÃ³n":6931,"Ġ36":6932,"Ġamenaza":6933,"Ġpositivo":6934,"Ġrealizada":6935,"ĠLor":6936,"Ġgobiernos":6937,"ĠBern":6938,"Ġtareas":6939,"Ġvio":6940,"ĠFranco":6941,"Ġmani":6942,"Ġeuropeas":6943,"Ġdesactiv":6944,"ume":6945,"Ġgala":6946,"Ġhermano":6947,"ĠcrÃŃtica":6948,"Ġmera":6949,"ms":6950,"onal":6951,"Ġconstruc":6952,"li":6953,"Juan":6954,"ĠTodos":6955,"ĠColegio":6956,"ĠAutÃ³noma":6957,"ĠIgnacio":6958,"Ġfuertes":6959,"Ġembara":6960,"ĠVillar":6961,"Ġanaliz":6962,"Ġdesaf":6963,"roÃ±o":6964,"ĠcoaliciÃ³n":6965,"Ġferia":6966,"ĠPin":6967,"Ġape":6968,"Ġterminar":6969,"39":6970,"Ġreper":6971,"Ġacusado":6972,"Ġenga":6973,"olÃ³gicas":6974,"Ġviajar":6975,"Ġgira":6976,"ĠilusiÃ³n":6977,"Ġdificultades":6978,"Ġcartel":6979,"Ġatre":6980,"ĠRafael":6981,"Ġporcentaje":6982,"onces":6983,"Ã©ndose":6984,"Ġ2020":6985,"ĠAlmerÃŃa":6986,"Ġsostenible":6987,"Ġesperanza":6988,"Ġconclu":6989,"ii":6990,"Ġpotencia":6991,"ionar":6992,"camiento":6993,"Ġdesped":6994,"Ġcostes":6995,"ĠgarantÃŃa":6996,"Ġvariedad":6997,"Ġreformas":6998,"ĠguÃŃa":6999,"ĠMÃºsica":7000,"gues":7001,"Ġtuvieron":7002,"ĠVald":7003,"Ġforman":7004,"traciones":7005,"ĠexplicÃ³":7006,"ĠCoruÃ±a":7007,"Ġdirigida":7008,"ĠReina":7009,"Ġasturi":7010,"38":7011,"Ġchoc":7012,"Ġsuces":7013,"Ġbatalla":7014,"Ġocurrido":7015,"Ġexpec":7016,"Ġpronunci":7017,"ulos":7018,"Ġingenier":7019,"elec":7020,"tara":7021,"Ġconsejos":7022,"ĠVenezuela":7023,"adero":7024,"Ġtrayectoria":7025,"Ġenfrentar":7026,"Ġprobar":7027,"ĠDepartamento":7028,"idaridad":7029,"amentos":7030,"Ġdesconoci":7031,"zando":7032,"Ġfortal":7033,"ĠdecidiÃ³":7034,"ĠreseÃ±as":7035,"Ġconsiste":7036,"Ġterra":7037,"Ġcomportamiento":7038,"Pal":7039,"Ġinvierno":7040,"trÃ³":7041,"truy":7042,"Ġesperando":7043,"Ġvale":7044,"ĠcrÃŃticas":7045,"Ġger":7046,"arez":7047,"isas":7048,"Ġarras":7049,"enden":7050,"Ġdiferencias":7051,"Ġmovilidad":7052,"itaciones":7053,"Ġveg":7054,"viedo":7055,"ĠPue":7056,"Ġuniversidad":7057,"Ġponen":7058,"Ġviento":7059,"Ġofrecemos":7060,"ĠmillÃ³n":7061,"Ġviven":7062,"Ġreclama":7063,"Ġobjetos":7064,"Ġtriunfo":7065,"RECH":7066,"Ġapoyar":7067,"ceres":7068,"ĠDem":7069,"Ġformado":7070,"Ġvalenci":7071,"ENTE":7072,"Ġenem":7073,"tive":7074,"Ġpresentan":7075,"Ġdifund":7076,"Ġvidas":7077,"NA":7078,"Ã³mica":7079,"OO":7080,"Ġforo":7081,"ĠubicaciÃ³n":7082,"Ġprovis":7083,"rÃ¡neo":7084,"Ġmonum":7085,"Ġinmobili":7086,"Ġgrav":7087,"idaciÃ³n":7088,"Am":7089,"Ġincon":7090,"ĠprevenciÃ³n":7091,"Ġportu":7092,"Ġtribu":7093,"ĠcÃ¡l":7094,"ĠlÃŃmite":7095,"ĠPon":7096,"cenas":7097,"Ġpermitido":7098,"Ġvos":7099,"fÃ©":7100,"ĠUnidas":7101,"ĠFuer":7102,"Ġaspir":7103,"Ġilum":7104,"EstÃ¡s":7105,"ĠperiÃ³dico":7106,"VO":7107,"Ġcastellano":7108,"ĠrecibiÃ³":7109,"ĠevaluaciÃ³n":7110,"Col":7111,"Ġestablecimiento":7112,"Ġrestos":7113,"esper":7114,"ĠeconÃ³micas":7115,"Ġaprendizaje":7116,"iten":7117,"Ġespecies":7118,"Ġlenguaje":7119,"ĠBarÃ§a":7120,"opera":7121,"Ġdeportivo":7122,"Ġreferente":7123,"Ġvasco":7124,"Ġhabido":7125,"Ġcicl":7126,"Ġocio":7127,"formas":7128,"ĠmÃºltiples":7129,"ĠtÃŃp":7130,"ĠreÃºn":7131,"Ġgraves":7132,"Ġrell":7133,"Nuestra":7134,"Ġmate":7135,"ĠclÃŃn":7136,"Ġllamar":7137,"Ġpremi":7138,"diario":7139,"Ġusando":7140,"iada":7141,"Tal":7142,"ĠDERECH":7143,"Ġcorrespondientes":7144,"Ġcorre":7145,"ĠintegraciÃ³n":7146,"ĠaprobaciÃ³n":7147,"ĠNatural":7148,"Ã±ado":7149,"ĠRÃŃo":7150,"Ġsecu":7151,"Ġcien":7152,"ĠmÃ©dicos":7153,"ĠbalÃ³n":7154,"Clas":7155,"Ġincluyen":7156,"emen":7157,"Ġabor":7158,"Ġsuger":7159,"ĠnÃºmeros":7160,"Ġbicic":7161,"Ġnarra":7162,"Ġbos":7163,"ĠclasificaciÃ³n":7164,"Ġtradicionales":7165,"bum":7166,"cribe":7167,"ĠempezÃ³":7168,"wn":7169,"Ġvemos":7170,"ARIO":7171,"Ġvistas":7172,"Ġpensando":7173,"Ġindis":7174,"anta":7175,"Ġmetro":7176,"ĠlegislaciÃ³n":7177,"Ter":7178,"uerta":7179,"ĠDigital":7180,"Ġencontraba":7181,".)":7182,"Ġaceptas":7183,"Ġdejando":7184,"Ġviendo":7185,"Ġprivi":7186,"Ã¡nico":7187,"amora":7188,"rad":7189,"PSOE":7190,"muy":7191,"ĠSalv":7192,"ĠPrincip":7193,"Ġcalendario":7194,"nal":7195,"ĠArtes":7196,"ĠTorres":7197,"Ġdul":7198,"Ġmagistr":7199,"inta":7200,"eler":7201,"ĠEsp":7202,"guen":7203,"gÃ³":7204,"Ġintegral":7205,"ĠcompaÃ±ero":7206,"Ġquiera":7207,"vila":7208,"Ġaltas":7209,"terra":7210,"Ġmerece":7211,"Copyright":7212,"ĠPalma":7213,"Ġfinalidad":7214,"tega":7215,"ĠLin":7216,"Ġlujo":7217,"ĠViv":7218,"Ġactores":7219,"CON":7220,"ĠPresu":7221,"ĠVigo":7222,"Ġcomunes":7223,"Ġpintura":7224,"cionada":7225,"Ġaparecen":7226,"Ġced":7227,"ĠBu":7228,"Ġsimilares":7229,"Ġpromover":7230,"Ġvar":7231,"Ġculpa":7232,"Ġsubvenciones":7233,"Ġtemperatura":7234,"ĠÃ³rgano":7235,"ĠSU":7236,"Ġsencilla":7237,"Ġingles":7238,"Ġturistas":7239,"ĠdarÃ¡":7240,"ĠBrasil":7241,"Introdu":7242,"Ġespos":7243,"Ġrecomendamos":7244,"Ġdesf":7245,"Ġrein":7246,"ĠESPA":7247,"Ġreales":7248,"Ġimplica":7249,"icha":7250,"ĠmanifestaciÃ³n":7251,"Ġsonido":7252,"Ġpoli":7253,"ĠvÃŃas":7254,"Ġministra":7255,"Ġcuarta":7256,"ĠLE":7257,"ĠAir":7258,"ajara":7259,"icana":7260,"Ġamis":7261,"ĠAB":7262,"Ġoficinas":7263,"Nuestros":7264,"ĠestarÃ¡n":7265,"Ġincom":7266,"brica":7267,"Ġmaravillos":7268,"Ã³stico":7269,"ĠBos":7270,"trol":7271,"ĠBlanco":7272,"bit":7273,"ĠtendrÃŃa":7274,"nav":7275,"iod":7276,"ĠconfiguraciÃ³n":7277,"Ġtarif":7278,"Ġayuntamiento":7279,"Ġayuntamientos":7280,"ÃŃodo":7281,"ajaj":7282,"paracion":7283,"Ġrepas":7284,"Ġrestaurantes":7285,"Ġsiglos":7286,"Ġimpuesto":7287,"metros":7288,"Ġeficaz":7289,"Recibe":7290,"izados":7291,"Ġtambien":7292,"Ġcambiado":7293,"jÃ³n":7294,"crÃŃ":7295,"Ġcay":7296,"odom":7297,"ĠCampe":7298,"ĠSub":7299,"ĠEnc":7300,"Ġhermanos":7301,"Ġpared":7302,"ĠMayor":7303,"Ġventaja":7304,"ĠaÃ©":7305,"Ġdominio":7306,"Ġfundamentales":7307,"Estoy":7308,"gico":7309,"Viv":7310,"ĠDerechos":7311,"Ġcontrolar":7312,"Ġdespa":7313,"Ġpies":7314,"Ġheridos":7315,"ĠUsu":7316,"novaciÃ³n":7317,"Ġcontribuy":7318,"Cal":7319,"ĠfÃŃsico":7320,"Cur":7321,"Ġocupa":7322,"Ġvienen":7323,"ĠdifusiÃ³n":7324,"Ġ150":7325,"Ġmente":7326,"Ġcondena":7327,"Ho":7328,"ualmente":7329,"bia":7330,"Ġfirmado":7331,"cientes":7332,"Ġecol":7333,"Ġagre":7334,"Ġprocl":7335,"Ġtrabajan":7336,"ĠanunciÃ³":7337,"Ġoscu":7338,"ĠPrograma":7339,"Ġdeclarado":7340,"Ġtarea":7341,"ariamente":7342,"ĠPNV":7343,"Ġ400":7344,"ĠSant":7345,"ĠRosa":7346,"ĠOfici":7347,"tamen":7348,"Ġconfirmado":7349,"Ġclaves":7350,"Ġsolamente":7351,"TAS":7352,"Ġdiscipl":7353,"ĠMoreno":7354,"Ġcorresponde":7355,"ĠRoc":7356,"Ġarchivo":7357,"ĠcontraseÃ±a":7358,"umbre":7359,"Ġutilizando":7360,"Ġtoca":7361,"?,":7362,"ider":7363,"Ġindirectamente":7364,"cierto":7365,"ĠMallorca":7366,"ĠHernÃ¡ndez":7367,"pra":7368,"ĠprevÃ©":7369,"Ġconductor":7370,"ingÃ¼":7371,"Ġrealizan":7372,"ĠturÃŃstico":7373,"Ġpaciente":7374,"lamen":7375,"Ġais":7376,"Ġ75":7377,"his":7378,"rÃ³n":7379,"udas":7380,"90":7381,"Inter":7382,"Ġmental":7383,"Ġurbano":7384,"Ġbienestar":7385,"Ġgratuito":7386,"ezca":7387,"ĠCamino":7388,"Ġdespe":7389,"Ġnar":7390,"ĠAlfonso":7391,"cambio":7392,"ĠFlor":7393,"Ġitaliano":7394,"Era":7395,"ĠcientÃŃficos":7396,"osos":7397,"Ġvigor":7398,"Ġinteresa":7399,"ĠalimentaciÃ³n":7400,"mart":7401,"Ġsalido":7402,"Ġlleno":7403,"indows":7404,"Muy":7405,"iona":7406,"ĠSergio":7407,"UD":7408,"ÃŃfico":7409,"Ġpiedra":7410,"Ġabogado":7411,"Ġadministr":7412,"Ġresponsab":7413,"Ġpiscina":7414,"ĠFormaciÃ³n":7415,"Ġmatrimonio":7416,"hi":7417,"Ġrealizadas":7418,"Ġadquis":7419,"Ġpublici":7420,"ĠquizÃ¡s":7421,"ĠobligaciÃ³n":7422,"Ġseguros":7423,"Ġinfraestructuras":7424,"ĠLi":7425,"Ġacudir":7426,"ĠAustr":7427,"ĠDiv":7428,"usiones":7429,"Ġrepetir":7430,"itorio":7431,"Ġadecuado":7432,"ĠperÃŃodo":7433,"ĠdaÃ±o":7434,"Ġtriste":7435,"utas":7436,"ĠJulio":7437,"ĠSenado":7438,"Ġinstitucional":7439,"esÃŃa":7440,"identa":7441,"Ġchicas":7442,"ĠCel":7443,"Ġbajas":7444,"Ġbiblio":7445,"Ġsabes":7446,"Ġincluir":7447,"Ġmira":7448,"Ġmarketing":7449,"ionado":7450,"Ġdepartamento":7451,"ĠBea":7452,"Ġresponde":7453,"Ġeconom":7454,"gadas":7455,"Ġasistentes":7456,"Ġcamis":7457,"Ġcontiene":7458,"Ġelectrodom":7459,"QUIER":7460,"Ġausencia":7461,"ĠPER":7462,"onÃŃa":7463,"ubil":7464,"ĠMc":7465,"ĠmÃ©todo":7466,"Ġdr":7467,"ĠSegunda":7468,"IE":7469,"Ġaconse":7470,"ombia":7471,"Ġconvivencia":7472,"Ġâ":7473,"Ġrazon":7474,"Ġagencia":7475,"Ġign":7476,"Ġseguido":7477,"Ġactivos":7478,"pÃ³":7479,"Ġconciencia":7480,"Ġinmigrantes":7481,"Ġespal":7482,"ames":7483,"Ġlucra":7484,"Ġperros":7485,"ube":7486,"ĠmisiÃ³n":7487,"Ġrestr":7488,"emente":7489,"Finalmente":7490,"ĠlÃŃmites":7491,"aste":7492,"inados":7493,"Ġdelegado":7494,"Ġasuntos":7495,"Ġeducativo":7496,"ĠForo":7497,"ganos":7498,"ĠQue":7499,"ciles":7500,"Ġmoto":7501,"Ġirreg":7502,"ux":7503,"ĠpublicÃ³":7504,"ĠIndustria":7505,"OC":7506,"bierto":7507,"Ġaquello":7508,"ĠOro":7509,"Ġlegales":7510,"Ġmadru":7511,"nado":7512,"enz":7513,"ĠBurgos":7514,"ĠbritÃ¡nico":7515,"ĠHor":7516,"Ġlanzamiento":7517,"ĠenseÃ±anza":7518,"Ġcruz":7519,"ĠSab":7520,"Mon":7521,"Ġseguimiento":7522,"Ġavances":7523,"Ġcarb":7524,"risa":7525,"ariales":7526,"ĠGestiÃ³n":7527,"Ġentregar":7528,"Ġtextos":7529,"ĠmontaÃ±a":7530,"portes":7531,"Ġmirada":7532,"pio":7533,"Ġmapa":7534,"ĠPÃºblico":7535,"Ġmoderna":7536,"ions":7537,"jada":7538,"erse":7539,"tela":7540,"icol":7541,"ĠacompaÃ±ado":7542,"ĠPilar":7543,"ĠespÃŃritu":7544,"ĠinscripciÃ³n":7545,"Ġleche":7546,"Ġexclusiva":7547,"ĠacadÃ©m":7548,"Ġreceta":7549,"jandro":7550,"Ġcompras":7551,"rente":7552,"mentado":7553,"Ġatend":7554,"Ġposteriormente":7555,"Ġtier":7556,"Ġtantas":7557,"Ġcielo":7558,"Ġmilitares":7559,"37":7560,"bio":7561,"wa":7562,"Ġutilizado":7563,"ĠenvÃŃo":7564,"Ġnave":7565,"Ġejercer":7566,"Ġcuesta":7567,"ĠPlata":7568,"ĠapariciÃ³n":7569,"ĠConstitu":7570,"ĠvolviÃ³":7571,"Ġciudadano":7572,"art":7573,"lia":7574,"ĠmociÃ³n":7575,"ĠcÃ¡":7576,"Ġimprescindible":7577,"Ġllena":7578,"avier":7579,"Ġadministraciones":7580,"ĠSch":7581,"ERV":7582,"tegr":7583,"Ġcho":7584,"Ġsufrir":7585,"Ġmand":7586,"ĠCristo":7587,"Ġderrota":7588,"Ġfuncionarios":7589,"Ġrique":7590,"ĠMedia":7591,"ĠresÃºmenes":7592,"tori":7593,"Ġsolid":7594,"Ġdoctor":7595,"Ġdescuento":7596,"Ġhier":7597,"Ġrepi":7598,"Ġnaran":7599,"Ġdetenidos":7600,"Ġconfirma":7601,"Ġaficionados":7602,"Ġgarantiz":7603,"maras":7604,"Ġreuniones":7605,"orro":7606,"Ġasigna":7607,"ĠEX":7608,"izan":7609,"ĠJorn":7610,"lÃ³":7611,"Ġtribunal":7612,"Vamos":7613,"Esa":7614,"ĠCre":7615,"Ġdepende":7616,"Ġdedicada":7617,"ĠUS":7618,"ĠÃ¡l":7619,"Ġpierd":7620,"Ġindividual":7621,"Ġexhib":7622,"Ġapla":7623,"diciones":7624,"ĠaverÃŃa":7625,"Ġampliar":7626,"Ġpierde":7627,"Ġconsumidores":7628,"Ġperjud":7629,"Ġataques":7630,"Ġjapon":7631,"ĠMag":7632,"Ġinjus":7633,"Ġsufrido":7634,"Ġinspir":7635,"ĠquizÃ¡":7636,"cuerdo":7637,"ĠhabitaciÃ³n":7638,"Ġarre":7639,"LAS":7640,"ĠnavegaciÃ³n":7641,"Ġpuntu":7642,"Ġseries":7643,"ualidad":7644,"ibil":7645,"Ġmuseo":7646,"alizadas":7647,"ĠGol":7648,"Ġpanor":7649,"Ra":7650,"Ġparecen":7651,"Ġservir":7652,"Ġflex":7653,"alizaciones":7654,"ĠMonte":7655,"apÃ³n":7656,"Ġvay":7657,"Ġcomplejo":7658,"Ġcientos":7659,"ĠsitÃºa":7660,"ĠcampeÃ³n":7661,"ket":7662,"Ġrele":7663,"ĠcontarÃ¡":7664,"uesca":7665,"Ġserio":7666,"Ġcomarca":7667,"Ġdescargar":7668,"tesis":7669,"ĠUR":7670,"vern":7671,"Ġrecogida":7672,"Ġresistencia":7673,"Ġpieza":7674,"Ġdoce":7675,"Ġfinanciera":7676,"ĠDatos":7677,"ĠFomento":7678,"Ġmercan":7679,"Ġmanifiesto":7680,"Ã¡rez":7681,"ÃŃna":7682,"ĠJaÃ©n":7683,"Ġtorneo":7684,"Ġatribu":7685,"ĠsaliÃ³":7686,"Ġluchar":7687,"ĠXIX":7688,"Ġsoporte":7689,"tologÃŃa":7690,"mica":7691,"ĠrÃ¡pidamente":7692,"tagram":7693,"ĠBruselas":7694,"Ġ)":7695,"lados":7696,"quie":7697,"COM":7698,"Ġretro":7699,"Ġaltos":7700,"Ġmeter":7701,"lin":7702,"rero":7703,"ragon":7704,"Ãºcar":7705,"media":7706,"Ġinfluencia":7707,"ulaciÃ³n":7708,"Ġdieron":7709,"Ġtin":7710,"Ġvigente":7711,"Ġalar":7712,"Ġtradu":7713,"trado":7714,"blog":7715,"Pol":7716,"ĠCastro":7717,"Ġdemostrado":7718,"Ġperro":7719,"Ġcomplicado":7720,"Ġfrancesa":7721,"ĠCs":7722,"ĠAM":7723,"Ġganador":7724,"ĠcÃ³m":7725,"Ġinmediato":7726,"Ġfomentar":7727,"ĠacabÃ³":7728,"Ġrepresentante":7729,"igraciÃ³n":7730,"Ã¡z":7731,"Ġcontinua":7732,"Ġvolv":7733,"Ġnerv":7734,"46":7735,"Ġpaseo":7736,"Ġfarma":7737,"ĠreciÃ©n":7738,"ĠVie":7739,"Ġterrorismo":7740,"ĠelectrÃ³nica":7741,"Quiz":7742,"Ġhaz":7743,"ĠMA":7744,"Ġrepubl":7745,"Ġintelectual":7746,"ONA":7747,"ĠIz":7748,"Ġesencial":7749,"ĠZapatero":7750,"econ":7751,"Ġactiva":7752,"Ġrespectivamente":7753,"hora":7754,"Ġactivo":7755,"Ġoriginales":7756,"Ġaceptar":7757,"Ġverdadero":7758,"ĠcuÃ¡n":7759,"Ġbandera":7760,"habilitaciÃ³n":7761,"iero":7762,"grad":7763,"Ġvisu":7764,"Ġextin":7765,"Barcelona":7766,"Ġpred":7767,"%)":7768,"Ã³nico":7769,"Ġrecoger":7770,"Ġdirigentes":7771,"ĠJordi":7772,"ĠBiblioteca":7773,"ĠIgu":7774,"igas":7775,"Ġhubi":7776,"ĠclÃ¡sico":7777,"ĠDirector":7778,"amo":7779,"Ġescul":7780,"Ġrin":7781,"cismo":7782,"ites":7783,"Ġrefugiados":7784,"UES":7785,"ĠERC":7786,"tinos":7787,"Ġexplic":7788,"Ġlibres":7789,"Consulta":7790,"Ġsumar":7791,"Ġvosotros":7792,"Ġpasan":7793,"Ġinteresantes":7794,"sula":7795,"Bueno":7796,"2018":7797,"Ġdesn":7798,"Ġdejan":7799,"Ġcolegios":7800,"trans":7801,"Ġonce":7802,"ĠbebÃ©":7803,"Ġasistir":7804,"istorio":7805,"Ġ33":7806,"ĠganÃ³":7807,"Ġ65":7808,"lament":7809,"Ġelectorales":7810,"ĠOrganizaciÃ³n":7811,"ĠPalmas":7812,"Ġsabor":7813,"Ġimporta":7814,"ĠclimÃ¡tico":7815,"Ġfinanciero":7816,"Ġmalos":7817,"ĠAuto":7818,"terr":7819,"Ġarquitectura":7820,"Ġhablamos":7821,"ĠInnovaciÃ³n":7822,"Ġamp":7823,"Ġfelici":7824,"Ġconstitucional":7825,"Ġcerrado":7826,"Ġalerta":7827,"Ġalcohol":7828,"Ġexclusivamente":7829,"Ġdemuestra":7830,"Ġsing":7831,"Ġ---":7832,"Ġindependentistas":7833,"Ġarchivos":7834,"amas":7835,"Ġimpulsar":7836,"Ġprobablemente":7837,"Ġconsideran":7838,"guna":7839,"Ġrespuestas":7840,"Ġahorro":7841,"ficit":7842,"Ġ34":7843,"ĠRob":7844,"tibles":7845,"Ġespiri":7846,"Otros":7847,"Ġfeder":7848,"ear":7849,"pil":7850,"ĠVitoria":7851,"ionante":7852,"tacto":7853,"Ġje":7854,"Bo":7855,"Ġexplos":7856,"uevos":7857,"ĠnaciÃ³":7858,"Ġperspectiva":7859,"ĠSir":7860,"PS":7861,"ĠMediter":7862,"unas":7863,"ĠCir":7864,"Ġbonito":7865,"ĠaviÃ³n":7866,".....":7867,"paÃ±as":7868,"bu":7869,"ecas":7870,"Ġestabilidad":7871,"Ġaparecer":7872,"tedral":7873,"ey":7874,"Ġsiento":7875,"ĠHuelva":7876,"gando":7877,"2017":7878,"cidental":7879,"Ġencab":7880,"by":7881,"ĠEdu":7882,"Ġmoral":7883,"ĠconversaciÃ³n":7884,"Ġcontactar":7885,"tificaciÃ³n":7886,"tente":7887,"Ġestuv":7888,"Ġtanta":7889,"Ġadultos":7890,"ĠfrÃŃo":7891,"Tanto":7892,"Ġbuscan":7893,"Ġrap":7894,"Ġtocar":7895,"Ġgras":7896,"Ġcober":7897,"Ġnacimiento":7898,"Ġmex":7899,"Ġfrase":7900,"Ġcuadro":7901,"ĠparecÃŃa":7902,"Ġ2000":7903,"ĠconservaciÃ³n":7904,"Ġequiv":7905,"Ġregalo":7906,"ĠArch":7907,"Ġasis":7908,"05":7909,"ĠpolÃ©mica":7910,"ebro":7911,"ĠIra":7912,"xo":7913,"Ġ2005":7914,"Ġcancel":7915,"ĠvaloraciÃ³n":7916,"fin":7917,"eramente":7918,"Ġmedioamb":7919,"Ġafrontar":7920,"ĠCUAL":7921,"Ġsecreto":7922,"iciones":7923,"tenido":7924,"ĠWar":7925,"Ã¡mico":7926,"Ġaportar":7927,"Ġpiden":7928,"Ġresidencia":7929,"IZ":7930,"ĠRoma":7931,"Ġmodificar":7932,"Ġprepara":7933,"Ġcuestion":7934,"Ġblogs":7935,"ĠvotaciÃ³n":7936,"lla":7937,"ĠMesa":7938,"ĠlÃ¡":7939,"Ġpudiera":7940,"ME":7941,"ĠlogrÃ³":7942,"Ġprivados":7943,"Ġflor":7944,"Ġsiguiendo":7945,"ĠVol":7946,"ĠIngenier":7947,"Ġdiscrim":7948,"tÃ¡logo":7949,"Ġ48":7950,"09":7951,"ĠseguirÃ¡":7952,"Ġprovincial":7953,"govia":7954,"Ġplantea":7955,"gros":7956,"Ġaprovechar":7957,"Ġpobreza":7958,"ĠreflexiÃ³n":7959,"ĠCe":7960,"ĠcuÃ¡l":7961,"Ġaviso":7962,"Ġsituada":7963,"Ġentiende":7964,"Ġaventura":7965,"ĠDaniel":7966,"piraciÃ³n":7967,"ĠDERECHOS":7968,"Ġmarido":7969,"arme":7970,"Ġbasado":7971,"Ġconsejo":7972,"Ġelig":7973,"icantes":7974,"ORA":7975,"Ġsociedades":7976,"Ġpuente":7977,"Ġmarcar":7978,"ĠexplotaciÃ³n":7979,"Ġdor":7980,"ĠPad":7981,"Ġcreen":7982,"Ġsesiones":7983,"ĠDES":7984,"fra":7985,"Ġesperan":7986,"Ġord":7987,"Ġpasaj":7988,"ĠÃģlvarez":7989,"Ġsindic":7990,"ieg":7991,"cidas":7992,"Sol":7993,"ĠAndrÃ©s":7994,"Ġreparto":7995,"Ġplacer":7996,"ĠmÃŃnima":7997,"Ġlector":7998,"Ġquitar":7999,"Ġsubs":8000,"Ġambiental":8001,"Ġ=":8002,"Ġrecaud":8003,"uevas":8004,"ney":8005,"ĠCerv":8006,"Ġcama":8007,"ĠPrimera":8008,"ĠJuegos":8009,"Ġtalento":8010,"ĠJuz":8011,"ĠmodificaciÃ³n":8012,"Ġarque":8013,"ĠrealizÃ³":8014,"Ġcerv":8015,"Ġadquirir":8016,"Ġponerse":8017,"Ġplatos":8018,"Ġespecialistas":8019,"Ġdemostrar":8020,"Ġincumpl":8021,"ĠjamÃ¡s":8022,"Descu":8023,"Pla":8024,"Ġdejo":8025,"Ġresiduos":8026,"Ġleyendo":8027,"Ġdil":8028,"Ġtemperaturas":8029,"Ġmete":8030,"zados":8031,"empo":8032,"eco":8033,"ANA":8034,"34":8035,"ĠVo":8036,"Ġechar":8037,"Ġdato":8038,"Ġpensamiento":8039,"ĠEnerg":8040,"Ġlucrativos":8041,"ĠHen":8042,"mbol":8043,"Ġpeg":8044,"Ġliqu":8045,"Ġcotidi":8046,"Ġconsiderar":8047,"Ġ37":8048,"ĠtransformaciÃ³n":8049,"gÃ¡nica":8050,"Neces":8051,"Ġexter":8052,"Ġasegurar":8053,"ĠTi":8054,"lack":8055,"ĠOc":8056,"Ġpatro":8057,"Ġexces":8058,"Ġconstituy":8059,"Ġconta":8060,"Ġago":8061,"Ġbancar":8062,"Ġpoca":8063,"Ġdeportiva":8064,"Pr":8065,"Ġriqueza":8066,"ĠRegiÃ³n":8067,"Sigue":8068,"jeron":8069,"ĠcooperaciÃ³n":8070,"Ġcurios":8071,"ĠOviedo":8072,"Ġmarcado":8073,"oluciones":8074,"Ġsorteo":8075,"Ġchar":8076,"itadas":8077,"QUE":8078,"Ġsole":8079,"Ġadecuada":8080,"ijÃ³n":8081,"Ġsolar":8082,"Ġuniversidades":8083,"ĠcontinÃº":8084,"Ġagenda":8085,"Ġandaluz":8086,"Ġninguno":8087,"Ġlog":8088,"Ã³cra":8089,"unciÃ³n":8090,"lave":8091,"ĠUna":8092,"ologia":8093,"Ġrock":8094,"ĠOrtega":8095,"Ġaproximadamente":8096,"Ġmedie":8097,"Ġacoge":8098,"Ġprovincias":8099,"Soy":8100,"Ġblanca":8101,"ĠCook":8102,"Ġconferencia":8103,"Ġdesempe":8104,"ĠCUALQUIER":8105,"ĠcategorÃŃas":8106,"ĠCASO":8107,"Ġinteligencia":8108,"ĠdeberÃŃan":8109,"Ġdesarrolla":8110,"poco":8111,"Ġextranjero":8112,"ambre":8113,"Ġavance":8114,"cipe":8115,"temp":8116,"Ġaval":8117,"inada":8118,"Ã©cord":8119,"tativas":8120,"Igu":8121,"Ġcontado":8122,"ĠJimÃ©nez":8123,"Ġquis":8124,"Ġexpediente":8125,"Ġseres":8126,"Ġagru":8127,"Ġfactor":8128,"Ġfiscales":8129,"Ã©sticos":8130,"zcan":8131,"ierta":8132,"Ġfantas":8133,"ĠCasado":8134,"JD":8135,"Ġintenta":8136,"ĠParlament":8137,"ĠPAR":8138,"ure":8139,"Ġhol":8140,"ministro":8141,"ĠDele":8142,"Ġvinos":8143,"Ġronda":8144,"Ġilegal":8145,"Ġnegociaciones":8146,"zadas":8147,"ĠVenta":8148,"ĠLogroÃ±o":8149,"Ġplato":8150,"Ġexistentes":8151,"ĠBaleares":8152,"Ġenlaces":8153,"Ġcolabora":8154,"ĠteorÃŃa":8155,"Ġvicepresidente":8156,"Ġdesigu":8157,"Ġpreparado":8158,"anea":8159,"Ġprodujo":8160,"riel":8161,"Ġinterac":8162,"uelve":8163,"ĠDol":8164,"ĠconsiguiÃ³":8165,"Ġrode":8166,"Ġpresupues":8167,"All":8168,"Imp":8169,"Ã¡les":8170,"gla":8171,"Ġinformes":8172,"Ġnucle":8173,"oft":8174,"ĠInform":8175,"oncesto":8176,"Ġportada":8177,"irre":8178,"Ġvirtual":8179,"BRE":8180,"ĠpÃ¡r":8181,"Ġtoque":8182,"Ġrebel":8183,"ĠBB":8184,"Ġcorrectamente":8185,"Ġterap":8186,"illan":8187,"Ġcomis":8188,"ĠNew":8189,"ĠdÃ©ficit":8190,"ombi":8191,"Ġciviles":8192,"Ġmalo":8193,"Ġparecido":8194,"ĠllevarÃ¡":8195,"Ġfallecido":8196,"Ġpaque":8197,"ĠConsell":8198,"ĠrenovaciÃ³n":8199,"Ġalumno":8200,"irona":8201,"Ġestup":8202,"gui":8203,"Ġgestionar":8204,"Ġrenunci":8205,"Ġencargado":8206,"orld":8207,"Ġpoderos":8208,"Ġpiensa":8209,"toriales":8210,"iver":8211,"Ġmirar":8212,"top":8213,"ĠRESERV":8214,"CU":8215,"BL":8216,"ĠDom":8217,"Ġsolicitudes":8218,"ĠBlanca":8219,"ĠÃ¡lbum":8220,"Ġdesign":8221,"fu":8222,"Ġdestacan":8223,"ĠincreÃŃ":8224,"JO":8225,"Ġmadrugada":8226,"IDA":8227,"Ġescala":8228,"ĠMarta":8229,"Ġcrim":8230,"Ġplataformas":8231,"Ġfamoso":8232,"COO":8233,"ĠseÃ±alÃ³":8234,"','":8235,"Ġespecif":8236,"ĠPleno":8237,"Ġmultitud":8238,"Ġreiter":8239,"Ã¡zquez":8240,"ĠfenÃ³meno":8241,"Ġrecal":8242,"ĠÃ¡nimo":8243,"Ġinspec":8244,"Ġtramo":8245,"08":8246,"ĠAran":8247,"Ġbrill":8248,"Ġconsideramos":8249,"ĠDeporte":8250,"Ġapa":8251,"Ġlamenta":8252,"Ġcreer":8253,"ieren":8254,"lamos":8255,"ĠLocales":8256,"Luego":8257,"Ġfues":8258,"ĠCortes":8259,"Ġelaborado":8260,"Ġmezcla":8261,"Ġrecre":8262,"Ġeficiencia":8263,"Han":8264,"Trab":8265,"Ġgrados":8266,"Ġpantal":8267,"Ġdiscre":8268,"Ġguer":8269,"ĠalegrÃŃa":8270,"guardia":8271,"az":8272,"ĠÃģfrica":8273,"grado":8274,"istente":8275,"Ġcrecer":8276,"ĠinterpretaciÃ³n":8277,"ientales":8278,"ĠCuenca":8279,"ĠFamil":8280,"ĠtensiÃ³n":8281,"Ġvalle":8282,"ith":8283,"Ser":8284,"Ġincluidos":8285,"Ġcopi":8286,"Ġlluvia":8287,"Ġpermita":8288,"Ġguste":8289,"AV":8290,"Ġpisos":8291,"oros":8292,"ĠJapÃ³n":8293,"Ġcanales":8294,"ĠcapÃŃtulo":8295,"Ġconversaciones":8296,"Ġhagan":8297,"Ġclaramente":8298,"Ġmascul":8299,"Ġredac":8300,"ĠBueno":8301,"Actualmente":8302,"ION":8303,"Ġmenudo":8304,"ĠPresidencia":8305,"ĠelÃ©ctrica":8306,"gor":8307,"Ġvecino":8308,"ĠCi":8309,"Ġestancia":8310,"ĠescaÃ±os":8311,"MI":8312,"Ġperfecta":8313,"ĠAcademia":8314,"roid":8315,"Ġdelantero":8316,"ĠBadajoz":8317,"esto":8318,"Ġsolidaridad":8319,"Ġveter":8320,"ĠâĢ¢":8321,"ĠNoticias":8322,"ibar":8323,"ĠRESERVADOS":8324,"Ġpendientes":8325,"Ġcristal":8326,"toras":8327,"ĠDefensa":8328,"Ġperju":8329,"ĠMU":8330,"Ġestatal":8331,"Ġguitar":8332,"Ġfirme":8333,"ĠMod":8334,"Ã¡bamos":8335,"Ġprotocol":8336,"BI":8337,"Ġpreced":8338,"Ġinstruc":8339,"Au":8340,"enza":8341,"Ġgeo":8342,"lÃŃn":8343,"ÃįS":8344,"orra":8345,"gona":8346,"ĠME":8347,"cita":8348,"Ġextranjeros":8349,"Ġdigitales":8350,"ierten":8351,"01":8352,"ĠÃ³p":8353,"ĠPatrimonio":8354,"Ġaceler":8355,"Ġdaba":8356,"ografÃŃa":8357,"Ġvideoj":8358,"Ġseleccion":8359,"ĠpreocupaciÃ³n":8360,"tornos":8361,"ĠbaterÃŃa":8362,"Ġdirige":8363,"ĠconvirtiÃ³":8364,"Ġremon":8365,"hat":8366,"ĠCorporaciÃ³n":8367,"Ġejemplos":8368,"Ġ38":8369,"Ġbras":8370,"vos":8371,"eamente":8372,"Ġjurado":8373,"manes":8374,"ĠpasiÃ³n":8375,"Ġsiente":8376,"tanas":8377,"ĠDeportes":8378,"Ġvideos":8379,"Ġencuesta":8380,"Cs":8381,"atorios":8382,"terÃŃas":8383,"Ġvital":8384,"ĠquÃŃm":8385,"Ġretos":8386,"Ġprocedentes":8387,"Ġhablado":8388,"ĠColombia":8389,"ĠampliaciÃ³n":8390,"Pedro":8391,"cidentes":8392,"Ġalternativas":8393,"ĠCr":8394,"Ġpatrocin":8395,"Ġcuel":8396,"ĠrÃ©cord":8397,"ENCIA":8398,"Ġintroducir":8399,"Ġidentificar":8400,"Ġpendiente":8401,"ĠGovern":8402,"ĠGenerales":8403,"Ġmanifestado":8404,"Ġabon":8405,"ĠWord":8406,"Ġemisiones":8407,"Ġrealizando":8408,"unales":8409,"fal":8410,"Ġcerebro":8411,"don":8412,"Ġutilizan":8413,"Ġinser":8414,"vedra":8415,"ĠCaja":8416,"ĠWindows":8417,"Ġcomponentes":8418,"ĠEstudios":8419,"ĠpreparaciÃ³n":8420,"vio":8421,"ĠÃĵ":8422,"Ġgarantiza":8423,"Ġdiagn":8424,"cioso":8425,"ĠAlbert":8426,"Ġcontactos":8427,"Ġfrecuencia":8428,"icho":8429,"Muchos":8430,"Ġconocidos":8431,"toÃ±o":8432,"Ġjuega":8433,"07":8434,"ĠsÃŃmbol":8435,"ampions":8436,"ĠRural":8437,"Ġbl":8438,"egr":8439,"Ġapas":8440,"Ġ2004":8441,"Ġtem":8442,"vie":8443,"Ġsuperiores":8444,"ĠYou":8445,"Ġjubil":8446,"Ġinquie":8447,"ĠAlc":8448,"Ġcuento":8449,"Ġtela":8450,"Ġvuelo":8451,"Ġinteresados":8452,"Ġirregular":8453,"Ġestreno":8454,"ĠArm":8455,"Ġrelato":8456,"orios":8457,"Ġensayo":8458,"Ġprocedimientos":8459,"Ġtecnico":8460,"ĠrevisiÃ³n":8461,"amar":8462,"tualmente":8463,"ĠbÃ¡sicos":8464,"@@@@":8465,"SerÃ¡":8466,"Ġestablecimientos":8467,"ĠleÃŃdo":8468,"pue":8469,"Ġmasa":8470,"Ġrecortes":8471,"Ġcircuito":8472,"Ġproducen":8473,"Ġascenso":8474,"Ġautoridad":8475,"Ġcorriente":8476,"ĠApple":8477,"ires":8478,"199":8479,"ĠIsla":8480,"Ġbalance":8481,"Ġplano":8482,"Ġbolsa":8483,"Ġprote":8484,"quinas":8485,"Ġcercano":8486,"Ġespecializada":8487,"orcio":8488,"loj":8489,"Ġempresario":8490,"ortun":8491,"Ġextrema":8492,"Ġtotalidad":8493,"Incluye":8494,"06":8495,"Ġgenial":8496,"Ġpolic":8497,"Ġcubrir":8498,"ĠDoc":8499,"dencias":8500,"Ġromper":8501,"Ãºc":8502,"ej":8503,"Ġparticipan":8504,"ags":8505,"ĠBlog":8506,"orge":8507,"POR":8508,"Ġmedic":8509,"Ġvenir":8510,"orar":8511,"ĠconcesiÃ³n":8512,"Ġesfuerzos":8513,"Ġfes":8514,"Ġprimavera":8515,"ĠDr":8516,"Ġtercero":8517,"ĠBildu":8518,"Ġtrabajador":8519,"Ġespecializados":8520,"Ġdiferenci":8521,"Parece":8522,"Ġmandato":8523,"ensiones":8524,"ami":8525,"ĠafirmÃ³":8526,"Ġsexuales":8527,"Ġestren":8528,"Ġllegue":8529,"Ġmezcl":8530,"ĠcampaÃ±as":8531,"Ġapartam":8532,"Ġcero":8533,"LOS":8534,"ĠCad":8535,"Ġpreparar":8536,"ĠCristi":8537,"Ġelectricidad":8538,"ĠIV":8539,"Ġocurr":8540,"ĠCS":8541,"Ã¡ticas":8542,"Ġlocalidades":8543,"Espero":8544,"Ġocupar":8545,"Ġproporcion":8546,"],":8547,"tarias":8548,"urales":8549,"Ġidioma":8550,"timon":8551,"udos":8552,"ĠPresupuestos":8553,"QuiÃ©n":8554,"Ġalojamiento":8555,"Ġexpresidente":8556,"AÃºn":8557,"ĠcientÃŃfico":8558,"Ġcontemporanea":8559,"Ġdecreto":8560,"Ġdiciendo":8561,"Ġfelicidad":8562,"vistas":8563,"ĠSusana":8564,"Entonces":8565,"Ġtitulares":8566,"tedes":8567,"Clasificados":8568,"Ġdiversidad":8569,"portar":8570,"ĠCiencia":8571,"ser":8572,"Ġposiciones":8573,"Ġveinte":8574,"cedes":8575,"ĠcontemporÃ¡n":8576,"ontevedra":8577,"Ġmover":8578,"endaciones":8579,"Ġtrato":8580,"cones":8581,"Ġletras":8582,"ĠBra":8583,"mÃ¡ticos":8584,"ĠVa":8585,"Ġextremo":8586,"ĠJoaqu":8587,"eis":8588,"Ġfij":8589,"ĠSar":8590,"Ġestrategias":8591,"ment":8592,"emn":8593,"48":8594,"Ġhin":8595,"ĠelÃ©ctrico":8596,"thle":8597,"MS":8598,"Ġ195":8599,"ÃŃdos":8600,"avaj":8601,"ĠSistema":8602,"uo":8603,"Ġporno":8604,"Ġexpon":8605,"ĠVis":8606,"Ġgustan":8607,"tagena":8608,"Ġnorteameric":8609,"ĠMario":8610,"Ġestatu":8611,"Ġplayas":8612,"Ġtransparencia":8613,"Ġhue":8614,"Ġmarcados":8615,"ĠSuÃ¡rez":8616,"33":8617,"Ġpose":8618,"Ġposee":8619,"Ġprestaciones":8620,"Ġpresidencia":8621,"enzo":8622,"Ġevi":8623,"ĠCN":8624,"ĠFÃºtbol":8625,"ĠautonomÃŃa":8626,"Ġapellido":8627,"omba":8628,"ĠMol":8629,"Ġrecin":8630,"ĠVega":8631,"mis":8632,"Ġtomado":8633,"ow":8634,"ĠTeresa":8635,"ĠAlbacete":8636,"Ġdieta":8637,"arragona":8638,"garÃ¡":8639,"Ġescuelas":8640,"sta":8641,"Ġmaterias":8642,"Ġtiro":8643,"cripciones":8644,"Ġmando":8645,"Ġvotantes":8646,"Ġcuadrados":8647,"didas":8648,"alquier":8649,"Ġaporta":8650,"ĠSÃ¡":8651,"ĠEditorial":8652,"pot":8653,"Ġcomunicaciones":8654,"Ġversiones":8655,"Ġprivileg":8656,"ĠDomingo":8657,"Ġantiguos":8658,"Ġinfec":8659,"Ġfrontera":8660,"Ġdipl":8661,"PublicaciÃ³n":8662,"ĠprofesiÃ³n":8663,"Cono":8664,"ĠLiber":8665,"ĠJur":8666,"uelta":8667,"fera":8668,"Ġtestimon":8669,"mal":8670,"Ġemergencia":8671,"Ġsien":8672,"________":8673,"Ġpolicial":8674,"ĠcientÃŃfica":8675,"Ġservidor":8676,"Ġacondicionado":8677,"ĠÃ¡mbitos":8678,"Ġturno":8679,"TAN":8680,"EB":8681,"Ġatentado":8682,"ĠrealizarÃ¡":8683,"mÃ³vil":8684,"Ġdivul":8685,"Ġbasada":8686,"ĠIsrael":8687,"/...":8688,"Ġexactamente":8689,"idal":8690,"AÃ±":8691,"Ġcomplementar":8692,"Ġsanidad":8693,"Ġtono":8694,"Ġchicos":8695,"Ġcombus":8696,"Ġfruto":8697,"Ġdefec":8698,"Ġllevaba":8699,"ĠLegal":8700,"TV":8701,"ĠGuadalajara":8702,"ington":8703,"Ġexperto":8704,"titudes":8705,"chado":8706,"plica":8707,"Ġcobertura":8708,"Ġpropietarios":8709,"ÃŃctor":8710,"Tres":8711,"ĠadaptaciÃ³n":8712,"ĠCuer":8713,"Ab":8714,"Ġcolum":8715,"Ġcuyos":8716,"Bien":8717,"Ġalcanzado":8718,"ĠHu":8719,"ĠgastronomÃŃa":8720,"ĠfÃ¡cilmente":8721,"ÃĳA":8722,"thletic":8723,"Ġlabores":8724,"ĠpidiÃ³":8725,"icciones":8726,"Ġirre":8727,"EZ":8728,"Ġconforme":8729,"Pon":8730,"omina":8731,"Ġpreocupa":8732,"Ġtendencias":8733,"Ġpropa":8734,"ĠONG":8735,"ĠIl":8736,"Ġasc":8737,"cro":8738,"Ġjuzgado":8739,"ĠIzquier":8740,"Ġobtenido":8741,"Ġinstrumentos":8742,"Ã±oz":8743,"aller":8744,"ĠEstatu":8745,"ĠXXI":8746,"cista":8747,"Ġinc":8748,"ĠÃ³rganos":8749,"Ġlogra":8750,"Ġdeportivas":8751,"Ã©ro":8752,"Ġfach":8753,"Ġquieran":8754,"itÃ¡n":8755,"Ġferro":8756,"Ġasumir":8757,"ĠChile":8758,"iadas":8759,"Ġlanza":8760,"Ġimple":8761,"Ġhago":8762,"ĠcelebrÃ³":8763,"ĠMedios":8764,"Ġvenido":8765,"Ã¡ndole":8766,"ĠIgualdad":8767,"ĠUnidad":8768,"ĠYo":8769,"Ġimpon":8770,"antiles":8771,"31":8772,"Ġinsul":8773,"Ġresal":8774,"utu":8775,"ild":8776,"ĠmadrileÃ±o":8777,"Ġencuestas":8778,"ibuye":8779,"arle":8780,"Ġalber":8781,"Ġflores":8782,"Centro":8783,"ĠaportaciÃ³n":8784,"ĠficciÃ³n":8785,"Ġobligado":8786,"Ġsobreviv":8787,"ĠsÃ³l":8788,"Ġsubrayado":8789,"Tengo":8790,"xit":8791,"''":8792,"ĠWill":8793,"dado":8794,"EE":8795,"fre":8796,"resa":8797,"Ġrechazo":8798,"gia":8799,"Ġpus":8800,"Ġgustado":8801,"Ġpala":8802,"Ġeducativos":8803,"its":8804,"Ġadvierte":8805,"Ġmejoras":8806,"Ġinmediata":8807,"Ġadicional":8808,"ego":8809,"Ġquerer":8810,"Ġviaj":8811,"glaterra":8812,"TC":8813,"ĠVan":8814,"Ġpercib":8815,"Ġrecetas":8816,"Ġciudadana":8817,"Ġempu":8818,"ĠregulaciÃ³n":8819,"75":8820,"rante":8821,"ĠInterna":8822,"Ġmantienen":8823,"verd":8824,"......":8825,"Ġhoriz":8826,"critos":8827,"Ġcompletar":8828,"Ġperteneci":8829,"Nosotros":8830,"Ġasesinato":8831,"Ġllegaron":8832,"ĠEmpresa":8833,"Ġcorta":8834,"ĠHumanos":8835,"ĠPaz":8836,"Ġsolicitado":8837,"ĠsÃŃnto":8838,"itivo":8839,"hum":8840,"Ġnaranja":8841,"Ġcensura":8842,"Ġurgente":8843,"Ġprotec":8844,"Ġaudiovis":8845,"ĠBro":8846,"ĠJud":8847,"icanos":8848,"gentino":8849,"ĠnÃºc":8850,"ĠChris":8851,"ĠLan":8852,"Ġrefuer":8853,"ĠCine":8854,"tinas":8855,"Ġexamen":8856,"Ġparal":8857,"Ġcog":8858,"ARC":8859,"Ġdefendido":8860,"Ġremi":8861,"ĠdivisiÃ³n":8862,"Ġciertos":8863,"Ġmanifesta":8864,"ĠConstitucional":8865,"Ġoperativo":8866,"quito":8867,"ets":8868,"ĠCalle":8869,"Ġmusicales":8870,"ĠcÃ¡maras":8871,"acu":8872,"osas":8873,"yn":8874,"Ġacabado":8875,"ĠCla":8876,"Ġremate":8877,"xi":8878,"Ġpersonalidad":8879,"Ġ600":8880,"ĠrevoluciÃ³n":8881,"Ġalimentar":8882,"Ġabsolutamente":8883,"Ġterritorial":8884,"ĠðŁ":8885,"Ġsenten":8886,"Ġlabora":8887,"Ġdesgra":8888,"Ġcruc":8889,"fas":8890,"Ġsindicato":8891,"ĠCap":8892,"IAS":8893,"trar":8894,"rosoft":8895,"Ġinfancia":8896,"bÃºs":8897,"ĠSAN":8898,"Ġprobable":8899,"Ġviejo":8900,"Ã¨n":8901,"iese":8902,"Ba":8903,"Ġvuelos":8904,"Ġtratamientos":8905,"fÃ³nica":8906,"Ġnieve":8907,"Ġune":8908,"Ġnegra":8909,"Ġama":8910,"Ġorganismos":8911,"ĠSim":8912,"ĠCastillo":8913,"Ġmantenido":8914,"ĠturÃŃstica":8915,"Ġfirmas":8916,"ĠHab":8917,"ĠCA":8918,"Ġintercambio":8919,"Ġcuerpos":8920,"avajillas":8921,"Ġces":8922,"Ġasign":8923,"tund":8924,"ÃŃticas":8925,"Ġcuota":8926,"ĠKa":8927,"Red":8928,"Ġpodremos":8929,"Ġprofundidad":8930,"Ġpublicaciones":8931,"Ġabandonar":8932,"Ti":8933,"iguras":8934,"Mas":8935,"Ġaudiencia":8936,"Ġterminado":8937,"pias":8938,"Ġbeso":8939,"Us":8940,"Ġfemenino":8941,"osten":8942,"ĠAlejandro":8943,"Ġindemn":8944,"efin":8945,"Ġigualmente":8946,"Ġencuentros":8947,"Ġdeterminar":8948,"ĠMediterrÃ¡neo":8949,"Ġafili":8950,"Ġsegura":8951,"Nunca":8952,"Ġcolectiva":8953,"ĠcontaminaciÃ³n":8954,"mend":8955,"ĠChampions":8956,"medio":8957,"ĠRSS":8958,"Ġdeportes":8959,"Ġaprueba":8960,"serv":8961,"Ġaumenta":8962,"Ġabund":8963,"Ġhered":8964,"Ġaos":8965,"ĠXunta":8966,"Ġsupera":8967,"ĠprestaciÃ³n":8968,"Ġentrenamiento":8969,"Ġsalen":8970,"ĠdiseÃ±ado":8971,"Ġresumen":8972,"Ġcomod":8973,"ĠCookies":8974,"Ġconstituye":8975,"ĠIVA":8976,"ĠOJD":8977,"Ġtrama":8978,"ĠNavarro":8979,"ĠTar":8980,"Ġprotesta":8981,"ĠhÃ¡bitos":8982,"Ã©ramos":8983,"Ġclaus":8984,"ĠTerri":8985,"iosas":8986,"Ġponiendo":8987,"Ġpertenece":8988,"ĠOficina":8989,"ĠRegistro":8990,"caba":8991,"Ġinteresado":8992,"Ġbajar":8993,"Ġcambia":8994,"ĠjurÃŃdica":8995,"Ġbiblioteca":8996,"Ġsolucionar":8997,"ries":8998,"Ġconceptos":8999,"Ġnecesitas":9000,"Ġpaisaje":9001,"Ġabsoluto":9002,"Ġrutas":9003,"Ġquede":9004,"anim":9005,"04":9006,":)":9007,"Ġsucede":9008,"Ġterrorista":9009,"Ġtriunf":9010,"ĠraÃŃz":9011,"ĠautÃ³nomas":9012,"ĠsabÃŃa":9013,"Ġtierras":9014,"Ġinvertir":9015,"Ġingred":9016,"Ġgir":9017,"CIO":9018,"Ãļl":9019,"ĠGrecia":9020,"Ġacostum":9021,"enn":9022,"tÃ³graf":9023,"ixa":9024,"ĠcafÃ©":9025,"Ġregiones":9026,"ĠAlim":9027,"Ġusa":9028,"cript":9029,"Ġpublicados":9030,"ĠMara":9031,"ĠJoan":9032,"Ġesposa":9033,"Ġliga":9034,"Ġverdadera":9035,"Ġeficacia":9036,"CL":9037,"Ġcere":9038,"Ġdichos":9039,"entre":9040,"Ġllamadas":9041,"Ġkilos":9042,"lÃ¡n":9043,"Ġpene":9044,"ĠCR":9045,"PD":9046,"segur":9047,"ĠautÃ³nomos":9048,"Ġrepercu":9049,"Ġcartas":9050,"+]":9051,"Ġdesay":9052,"ruecos":9053,"TS":9054,"Ġretirada":9055,"Ġespectadores":9056,"Ġcarreras":9057,"Ġbod":9058,"Ġsimul":9059,"Ġurnas":9060,"Ġvivido":9061,"ĠCrea":9062,"Ġregu":9063,"ther":9064,"Ġsufre":9065,"Ġrecomendaciones":9066,"Tampoco":9067,"ĠincorporaciÃ³n":9068,"Ġsalvar":9069,"Ġproporcionar":9070,"Ã³logos":9071,"Ġindustriales":9072,"ÃŃes":9073,"Ġreglas":9074,"soci":9075,"jante":9076,"Ġuniversal":9077,"uelto":9078,"Ġfallo":9079,"Ġsiga":9080,"ĠpodÃ©is":9081,"ĠÃī":9082,"vol":9083,"Ġcorrecto":9084,"Ġejercicios":9085,"Ġ39":9086,"Ġvirus":9087,"quillo":9088,"ĠJosep":9089,"ih":9090,"Dispon":9091,"ierto":9092,"ĠCaball":9093,"gin":9094,"Ġcondenado":9095,"Ġviajeros":9096,"Ġrecientes":9097,"Ġobservar":9098,"Ġintensidad":9099,"Ġlesiones":9100,"ĠDiputados":9101,"Ġcompens":9102,"ĠJuzgado":9103,"INA":9104,"Ġinvitados":9105,"Ġanaliza":9106,"orio":9107,"Ġrespal":9108,"Ġizquierdas":9109,"rafo":9110,"ike":9111,"ĠProfesional":9112,"Ġcola":9113,"Ġcontinuidad":9114,"Ġcarreteras":9115,"Ġestima":9116,"Ġprolon":9117,"ÃŃnsula":9118,"ĠCH":9119,"ĠjardÃŃn":9120,"65":9121,"PO":9122,"Ġconocemos":9123,"ĠAndalu":9124,"Ġefectivo":9125,"untamente":9126,"Ġestadio":9127,"Ġfinalizar":9128,"gip":9129,"ĠAlex":9130,"Ġhabituales":9131,"Ġlum":9132,"Ġcriterio":9133,"Ġhablan":9134,"Ġpata":9135,"Ġtrabajado":9136,"Ġfur":9137,"ĠMuÃ±oz":9138,"Ã©rico":9139,"quilla":9140,"Ġvestido":9141,"Ġ2003":9142,"Ġamiga":9143,"dias":9144,"bril":9145,"tren":9146,"Ġcomenta":9147,"ĠEduardo":9148,"CR":9149,"Ġexpectativas":9150,"Ġpositiva":9151,"Ġcompuesto":9152,"how":9153,"Ġ155":9154,"Ġiban":9155,"Ġbro":9156,"Ġquiso":9157,"ĠYa":9158,"Ġrescate":9159,"Ġpanorama":9160,"amÃ©rica":9161,"Ġanuales":9162,"Ġagente":9163,"Ġplen":9164,"Ã³f":9165,"Ġpresunto":9166,"Ap":9167,"ĠPaco":9168,"ĠAviso":9169,"verde":9170,"Ġbrasile":9171,"ĠgarantÃŃas":9172,"Amb":9173,"Ġremo":9174,"Ġpreocup":9175,"iÃ©ndose":9176,"LAN":9177,"ĠsatisfacciÃ³n":9178,"Ġbord":9179,"Ġpreviamente":9180,"udela":9181,"parte":9182,"inosa":9183,"dol":9184,"Ġdrogas":9185,"Ã³nimo":9186,"Ġimpulso":9187,"ecidos":9188,"Ġtanatorios":9189,"ĠaficiÃ³n":9190,"ĠdecoraciÃ³n":9191,"Ġcantidades":9192,"ĠJef":9193,"mina":9194,"ĠimpresiÃ³n":9195,"Tags":9196,"Ġprevista":9197,"arre":9198,"Ġvalorar":9199,"ĠSalvador":9200,"ĠNie":9201,"Ġcha":9202,"%),":9203,"Ġdevolver":9204,"ĠPir":9205,"idel":9206,"omÃ©":9207,"Ġuniverso":9208,"Ġcorred":9209,"Ġcomenzado":9210,"Ġplas":9211,"ĠfilosofÃŃa":9212,"Ġbarco":9213,"Ġaseguran":9214,"Ġinvestigaciones":9215,"ĠautonÃ³mico":9216,"Ġvel":9217,"Fel":9218,"Ġorganizada":9219,"Ġinformar":9220,"Ġfavoritos":9221,"ĠStar":9222,"Ġmanipul":9223,"abuena":9224,"ĠMul":9225,"Ġargentino":9226,"Ġmoderno":9227,"Ġobligaciones":9228,"TML":9229,"ĠFron":9230,"Ġequivoc":9231,"Ġamistad":9232,"vante":9233,"Ġincrementar":9234,"press":9235,"Ġsalas":9236,"ĠreÃºne":9237,"ĠpolicÃŃas":9238,"ĠUNA":9239,"ORES":9240,"Ġrol":9241,"Ġprima":9242,"Recuer":9243,"Ġhumanidad":9244,"geno":9245,"Ġpasajeros":9246,"ĠElectr":9247,"ĠHe":9248,"Ġcongreso":9249,"Ġinoc":9250,"ĠGil":9251,"hay":9252,"quilidad":9253,"Ġinstrumento":9254,"Ġfiguras":9255,"ĠNeg":9256,"Ġapuntado":9257,"Ġdesempleo":9258,"ĠPh":9259,"tici":9260,"Jo":9261,"Ġcitado":9262,"Ġdespl":9263,"diales":9264,"ueble":9265,"ĠPremios":9266,"ĠTu":9267,"Ġestados":9268,"ĠQuin":9269,"Ġaccidentes":9270,"Ġustedes":9271,"ĠInglaterra":9272,"loria":9273,"ENA":9274,"Ġsemif":9275,"ispo":9276,"ejo":9277,"ics":9278,"ÃŃtimo":9279,"ĠCAR":9280,"Ġtum":9281,"ĠimplantaciÃ³n":9282,"stru":9283,"Ġexpans":9284,"ajada":9285,"ĠBl":9286,"guraciÃ³n":9287,"Esper":9288,"ĠextensiÃ³n":9289,"Ġemble":9290,"ENES":9291,"Ġparlamentario":9292,"Ġsecretaria":9293,"ĠcrÃ©ditos":9294,"tadura":9295,"Ġlanzado":9296,"ĠBon":9297,"telerÃŃa":9298,"Ġprestar":9299,"Ġubicado":9300,"Ġend":9301,"ĠotoÃ±o":9302,"Ġvoces":9303,"Ġboda":9304,"Ġconcejales":9305,"InformaciÃ³n":9306,"ĠPÃºblicas":9307,"prom":9308,"Ġapuestas":9309,"Ġdeterminados":9310,"tualidad":9311,"100":9312,"Is":9313,"Ġdarse":9314,"ĠcoordinaciÃ³n":9315,"Ġdenunciado":9316,"Ġprovocado":9317,"Dentro":9318,"ĠmetÃ¡":9319,"sado":9320,"Ja":9321,"Ġ[+]":9322,"ĠenergÃ©tica":9323,"Ġenrique":9324,"tito":9325,"ĠlesiÃ³n":9326,"Ġaprobar":9327,"Ġ55":9328,"illera":9329,"piÃ©":9330,"Ġquedarse":9331,"ĠONU":9332,"rimir":9333,"ĠpropÃ³sito":9334,"Ġriv":9335,"Ġvuestra":9336,"rol":9337,"Ġcorrecta":9338,"Ġavanzar":9339,"Ġatro":9340,"quista":9341,"ĠUGT":9342,"Ġdecide":9343,"Ġnotas":9344,"Ġcomprender":9345,"ĠocupaciÃ³n":9346,"Ġrato":9347,"Ġhalla":9348,"Ġjueces":9349,"Ġtermina":9350,"Ġsanitarios":9351,"irman":9352,"ĠAnti":9353,"ĠPes":9354,"oles":9355,"Pese":9356,"ĠSantos":9357,"ĠEmpresas":9358,"cloa":9359,"Ġbille":9360,"Ġenmar":9361,"ds":9362,"ĠIP":9363,"ĠcatÃ¡logo":9364,"Ġventana":9365,"IDO":9366,"aunque":9367,"Ġnotable":9368,"Ġhorm":9369,"ĠinformÃ³":9370,"ĠreacciÃ³n":9371,"vic":9372,"Ġfracaso":9373,"Ġcentenar":9374,"ĠpresentarÃ¡":9375,"ĠPuente":9376,"Foto":9377,"Ġcaliente":9378,"trada":9379,"ĠPac":9380,"Ġincendios":9381,"cinco":9382,"ĠGijÃ³n":9383,"tenga":9384,"Cer":9385,"ÃŃncipe":9386,"ĠSoria":9387,"Ġprovoca":9388,"--------":9389,"Ġsanitario":9390,"Ġeduc":9391,"03":9392,"Ġauditada":9393,"ĠAire":9394,"Ġcompetir":9395,"Ã©lulas":9396,"Ġtoros":9397,"Ã¡us":9398,"ĠTal":9399,"ĠVill":9400,"Ġgobernar":9401,"Ġanteriormente":9402,"Ġdesigualdad":9403,"ĠAcciÃ³n":9404,"lleer":9405,",,":9406,"Cuenta":9407,"queras":9408,"quera":9409,"oll":9410,"Ġmarch":9411,"orado":9412,"ÃŃcula":9413,"ĠmÃ¡quina":9414,"Ġencabez":9415,"Ġbarrios":9416,"ĠRegional":9417,"Ġterraza":9418,"ĠHuesca":9419,"Ġnacido":9420,"Ġapropi":9421,"fund":9422,"ĠcombinaciÃ³n":9423,"ĠAthletic":9424,"Ġverse":9425,"ĠSiria":9426,"ĠPIB":9427,"Ġpresos":9428,"Ġacusa":9429,"Ġregreso":9430,"Ġmaestro":9431,"Ġconsciente":9432,"ĠdetenciÃ³n":9433,"ĠDec":9434,"ĠDeportivo":9435,"OE":9436,"ecimiento":9437,"Ġciertas":9438,"Ġodio":9439,"itando":9440,"Ġcandidata":9441,"Ġabordar":9442,"Ġelevado":9443,"cera":9444,"ĠUsuario":9445,"FA":9446,"Ġhermana":9447,"ril":9448,"ĠdemocrÃ¡tica":9449,"Ġom":9450,"Ġnoches":9451,"Ġlanzar":9452,"Ġpensado":9453,"venido":9454,"Ġcalef":9455,"iden":9456,"Incluso":9457,"ĠPrincipado":9458,"Ġmorir":9459,"Ġeducativa":9460,"Ġcombatir":9461,"Ġequilibrio":9462,"cuentro":9463,"igra":9464,"terapia":9465,"ĠescribiÃ³":9466,"Ġfuese":9467,"Ġofens":9468,"Ġparar":9469,"Ġsepara":9470,"Ġbols":9471,"brado":9472,"Ġrecinto":9473,"TIC":9474,"Ġtea":9475,"Ġalf":9476,"ĠfÃ³rmula":9477,"Ġtabl":9478,"ĠMossos":9479,"Ã±Ã³n":9480,"wood":9481,"Ġseguramente":9482,"Ġrecomienda":9483,"Ġconflictos":9484,"Ġparejas":9485,"cesa":9486,"ĠRodr":9487,"Ġescolares":9488,"44":9489,"ĠfantÃ¡s":9490,"Ġchico":9491,"ĠCOR":9492,"ĠIber":9493,"ish":9494,"ĠInstagram":9495,"Ã©ticos":9496,"Ġprivadas":9497,"ĠTour":9498,"ĠSeÃ±or":9499,"cura":9500,"ecida":9501,"ciado":9502,"Pablo":9503,"Compra":9504,"Ġasal":9505,"Ġfores":9506,"Ġfib":9507,"Tor":9508,"Ġperegr":9509,"tenta":9510,"Ir":9511,"ĠcariÃ±o":9512,"inio":9513,"Ġdecis":9514,"ADR":9515,"iremos":9516,"Ġrelacionado":9517,"mir":9518,"ĠMora":9519,"Ġpartid":9520,"Ġcocin":9521,"Ġproporciona":9522,"ĠcirculaciÃ³n":9523,"Ġcasco":9524,"Ġreducido":9525,"Her":9526,"Ã±igo":9527,"Rajoy":9528,"ĠagresiÃ³n":9529,"oraciÃ³n":9530,"Ġexcu":9531,"Ġfinancieras":9532,"Ġquinto":9533,"ĠCastellÃ³n":9534,"mbres":9535,"ight":9536,"ĠVO":9537,"AllÃŃ":9538,"ĠFacultad":9539,"ĠautonÃ³micas":9540,"Ġllor":9541,"garse":9542,"ĠPC":9543,"ĠmostrÃ³":9544,"trate":9545,"Ġescenarios":9546,"allas":9547,"Ġdiscur":9548,"Ġexposiciones":9549,"trÃŃa":9550,"Ciudadanos":9551,"rados":9552,"ĠAdministraciones":9553,"pista":9554,"leer":9555,"Ġalumnado":9556,"Ġsingular":9557,"Ġdedica":9558,"ipu":9559,"Ġconsejera":9560,"ĠCanal":9561,"taÃ±a":9562,"Ġislas":9563,"ĠexcepciÃ³n":9564,"tuario":9565,"Ġalemana":9566,"32":9567,"ĠAtenciÃ³n":9568,"Ġrevela":9569,"Ġdestinos":9570,"tÃ³lica":9571,"Ġcumplen":9572,"ses":9573,"Ġlema":9574,"ĠRoja":9575,"Ġjuventud":9576,"bete":9577,"Ġtarjetas":9578,"TRO":9579,"Ġtabla":9580,"ĠautobÃºs":9581,"tamo":9582,"Ġabrazo":9583,"inete":9584,"ĠTRA":9585,"Ġnovedad":9586,"Ġojo":9587,"tenimiento":9588,"Ġdrama":9589,"iblemente":9590,"Ġorganizar":9591,"Art":9592,"ĠComunidades":9593,"plan":9594,"Ġaux":9595,"Ġenfo":9596,"TORIA":9597,"Ġefectiva":9598,"Ġbicicleta":9599,"Ġhall":9600,"Ġconstruy":9601,"Ġjugue":9602,"Ġculp":9603,"Ġresponsabilidades":9604,"Ġdignidad":9605,"Real":9606,"Ġdestinado":9607,"ĠPRE":9608,"cieron":9609,"FOR":9610,"Ġmusul":9611,"Ġadj":9612,"Ġganad":9613,"ĠGlo":9614,"Ġconsultas":9615,"Ġenamor":9616,"tecn":9617,"Ġruido":9618,"Alber":9619,"ÃŃfica":9620,"ĠsuspensiÃ³n":9621,"Ġcontrad":9622,"Ġhoja":9623,"Ġorgullos":9624,"Ġconclusiones":9625,"ionistas":9626,"Ġdecenas":9627,"Ġladr":9628,"Ġsalto":9629,"horabuena":9630,"ides":9631,"Ġhaberse":9632,"ĠHerman":9633,"ĠestarÃŃa":9634,"Ġgallego":9635,"ĠReglamento":9636,"ĠmenÃº":9637,"Ġ42":9638,"Ġsuperviv":9639,"ĠRamos":9640,"fran":9641,"ĠSL":9642,"illar":9643,"bano":9644,"ĠllegarÃ¡":9645,"Ġcampeonato":9646,"Ġmadres":9647,"emato":9648,"adura":9649,"Press":9650,"Ġimpedir":9651,"paraciÃ³n":9652,"jano":9653,"ĠadquisiciÃ³n":9654,"Ġexpor":9655,"questa":9656,"Ġprecip":9657,"Ġespecialista":9658,"istemas":9659,"Ġevidencia":9660,"uri":9661,"tempor":9662,"Ġdiscos":9663,"tÃºan":9664,"abell":9665,"Ġdeterior":9666,"Ġcena":9667,"ĠLorenzo":9668,"ĠaverÃŃas":9669,"ĠLugo":9670,"neces":9671,"iesa":9672,"URL":9673,"lando":9674,"ĠmÃ©todos":9675,"denes":9676,"Ġidiomas":9677,"Ġinsu":9678,"Ġequival":9679,"ĠAgricultura":9680,"Ġreporta":9681,"Ġdirigente":9682,"ĠsufriÃ³":9683,"95":9684,"Ġsuyo":9685,"ĠNor":9686,"Ġdesas":9687,"Ġconfes":9688,"Ġrealizados":9689,"pons":9690,"Ġcertificado":9691,"TES":9692,"CIAS":9693,"ĠJoaquÃŃn":9694,"inidad":9695,"02":9696,"Ġespalda":9697,"ĠSocialista":9698,"esas":9699,"ĠSegovia":9700,"Ġimpro":9701,"iam":9702,"Ġmatar":9703,"ĠCAM":9704,"Ġfamosa":9705,"Ġinstalar":9706,"ĠteÃ³r":9707,"Ġhec":9708,"Ġtraslado":9709,"47":9710,"Ġinvol":9711,"Ġnecesitamos":9712,"incl":9713,"ensor":9714,"Ġimpac":9715,"elecciÃ³n":9716,"certid":9717,"ĠLle":9718,"ĠEjÃ©rcito":9719,"2011":9720,"Ġllen":9721,"ianos":9722,"baco":9723,"ĠVÃŃctor":9724,"ĠConce":9725,"Ġmanifestaciones":9726,"Ġestructuras":9727,"ĠperdiÃ³":9728,"ĠSep":9729,"Ġmetodo":9730,"ĠPersonal":9731,"ĠNaciones":9732,"ĠharÃ¡n":9733,"uncias":9734,"Ġjudiciales":9735,"ĠMartin":9736,"Tra":9737,"sh":9738,"Ġterroristas":9739,"mico":9740,"aso":9741,"ĠcÃ©lulas":9742,"ganda":9743,"Ġcierra":9744,"Ġpostura":9745,"Ġenviado":9746,"Ġacogida":9747,"ĠTE":9748,"inando":9749,"ezol":9750,"ĠNuevo":9751,"Ġempe":9752,"onesa":9753,"Ġcontigo":9754,"ĠAndroid":9755,"85":9756,"................":9757,"Ġsanitaria":9758,"Ġtendr":9759,"ĠCUP":9760,"Ġpropiedades":9761,"ĠcrÃŃtico":9762,"Ġcorrer":9763,"Ġabiertas":9764,"Ġreforzar":9765,"CÃ¡":9766,"ĠfabricaciÃ³n":9767,"Ġnegociar":9768,"ĠLim":9769,"ĠtendrÃ¡s":9770,"ĠdÃ©ci":9771,"ĠPD":9772,"Ġdeterminado":9773,"ĠdestacÃ³":9774,"ILLA":9775,"ĠCC":9776,"Ġsonrisa":9777,"ĠposesiÃ³n":9778,"Ġinversores":9779,"Ġcontratar":9780,"Ġaer":9781,"izÃ³":9782,"ciende":9783,"ĠMov":9784,"ĠDivisiÃ³n":9785,"Ġinvestiga":9786,"Ġhabilidades":9787,"ĠCarm":9788,"Ġregalos":9789,"tificar":9790,"DAD":9791,"Ġvalora":9792,"Ġpion":9793,"Ġbajos":9794,"ĠWorld":9795,"Euro":9796,"Ġalcanza":9797,"ĠjurÃŃdico":9798,"ĠÃį":9799,"Ġpreguntar":9800,"ĠGrand":9801,"movil":9802,"Ġheridas":9803,"Ġflamen":9804,"Ġdistinto":9805,"Ġruedas":9806,"Ġsufren":9807,"Ġquince":9808,"ificada":9809,"Ġvuestro":9810,"Ġnecesitar":9811,"DÃŃa":9812,"abal":9813,"cinas":9814,"lara":9815,"Ġtranquilidad":9816,"Ġfigur":9817,"Ġrevolucion":9818,"Ġcomparec":9819,"iti":9820,"Ġtrasladado":9821,"Ġintrod":9822,"Ġfija":9823,"Ġasesoramiento":9824,"GRA":9825,"Ġec":9826,"Ġmanual":9827,"2016":9828,"metro":9829,"Ġcontempla":9830,"Ġfraude":9831,"Ġpermanecer":9832,"Ġfestiv":9833,"ĠCin":9834,"Ġcae":9835,"ĠArt":9836,"ĠPrivacidad":9837,"Ġdormir":9838,"IENTO":9839,"Ġtreinta":9840,"uertos":9841,"Fern":9842,"Ġdistingu":9843,"Ġvuelva":9844,"izando":9845,"sic":9846,"ĠXVI":9847,"ĠincreÃŃble":9848,"ĠGarrido":9849,"GR":9850,"ĠMelilla":9851,"ĠTR":9852,"Ġrepresentar":9853,"Po":9854,"ĠÃģlvaro":9855,"Ġaplica":9856,"tines":9857,"Ġliderazgo":9858,"Ġpobres":9859,"Ġdespla":9860,"Ġinteligente":9861,"ste":9862,"ĠMayo":9863,"Ġpagos":9864,"Ġconcluy":9865,"traje":9866,"ĠBank":9867,"Ġpreven":9868,"tizado":9869,"ĠClas":9870,"ĠdiagnÃ³stico":9871,"Ġexigir":9872,"ĠCartagena":9873,"ani":9874,"Ġhubiese":9875,"Ven":9876,"Ġdeclarar":9877,"Ġroja":9878,"Ġglob":9879,"Ġsom":9880,"ĠCÃ¡ceres":9881,"timedia":9882,"ĠPrimaria":9883,"Ġcolo":9884,"Valencia":9885,"izca":9886,"timidad":9887,"eral":9888,"Ġemails":9889,"ĠTim":9890,"Ġnegativa":9891,"Ġaqui":9892,"Ġdisponer":9893,"Ġtendremos":9894,"icardo":9895,"ĠInfantil":9896,"ĠPSC":9897,"fl":9898,"Ġarres":9899,"ĠelectrodomÃ©sticos":9900,"Ġatractivo":9901,"ĠJose":9902,"Ġbasa":9903,"ĠLar":9904,"icias":9905,"Ġnovia":9906,"ĠCorte":9907,"Ġconfirmar":9908,"Ġplazos":9909,"Ġreina":9910,"ĠTri":9911,"Ġpoderes":9912,"Ġingreso":9913,"ÃŃg":9914,"ĠocurriÃ³":9915,"ĠrestauraciÃ³n":9916,"ĠautÃ©ntico":9917,"Ġformaciones":9918,"Encuen":9919,"Ġcuantos":9920,"ĠuniÃ³n":9921,"Ġconfigur":9922,"Ġcontribuir":9923,"Ġsuici":9924,"cara":9925,"Ġsuficientes":9926,"tiende":9927,"Ġpreferencias":9928,"Ġenm":9929,"ĠVOL":9930,"Ġsuman":9931,"Queremos":9932,"Ġespecializado":9933,"ĠplÃ¡stico":9934,"Ġfinancieros":9935,"erÃŃas":9936,"Ġlevantar":9937,"ĠcomposiciÃ³n":9938,"Ġarma":9939,"Ġclick":9940,"ĠautomÃ³vil":9941,"Ġfronteras":9942,"Les":9943,"Ġdefinitivo":9944,"Ġcontamos":9945,"Ġprimarias":9946,"ĠtransiciÃ³n":9947,"Ġlici":9948,"Ġfans":9949,"martph":9950,"Ġtratados":9951,"utos":9952,"Ġempate":9953,"Ġinfantiles":9954,"Ġmuestras":9955,"Ġdesm":9956,"venta":9957,"Ġproclam":9958,"rÃ¡tico":9959,"Ġconquis":9960,"crÃŃbete":9961,"Ġmecanismos":9962,"Ġbanca":9963,"mbre":9964,"Ġimponer":9965,"tional":9966,"ĠProduc":9967,"Ġsuministro":9968,"ĠactualizaciÃ³n":9969,"Ġamenazas":9970,"Quiero":9971,"ĠcomparaciÃ³n":9972,"bor":9973,"Ġdejamos":9974,"Ayer":9975,"ĠUniversitario":9976,"ĠMoncloa":9977,"tudi":9978,"Ã©ndez":9979,"Ġhorarios":9980,"burgo":9981,"Ġbes":9982,"Ġmadrid":9983,"Ġurgencia":9984,"ĠMarruecos":9985,"Ale":9986,"ĠOrgÃ¡nica":9987,"ĠVia":9988,"Ġprevenir":9989,"ĠFondo":9990,"Ġvende":9991,"ĠNicol":9992,"ĠAra":9993,"Ġejecutivo":9994,"Ġconces":9995,"Ãºr":9996,"ĠhistÃ³ricos":9997,"Ġpienso":9998,"Ġavanzado":9999,"Ġconsenso":10000,"Ġargumentos":10001,"lum":10002,"Ã±e":10003,"ceta":10004,"JE":10005,"inan":10006,"ĠMercedes":10007,"Ġcajas":10008,"Ġmetal":10009,"Ġhambre":10010,"Ġcomunicar":10011,"Ġviviendo":10012,"Ġfum":10013,"Ġquinta":10014,"ÃŃnea":10015,"ĠMetro":10016,"tÃ©r":10017,"ĠIzquierda":10018,"Ġsacr":10019,"Ġretra":10020,"eciendo":10021,"Ġconferencias":10022,"49":10023,"Web":10024,"bir":10025,"gresos":10026,"Ġreproduc":10027,"Ġtasas":10028,"Ġdescend":10029,"Ġabogados":10030,"ĠemisiÃ³n":10031,"Ġcaza":10032,"SI":10033,"Ġ250":10034,"loris":10035,"vias":10036,"Ġprogreso":10037,"Ġbron":10038,"ava":10039,"Ġfutur":10040,"idencial":10041,"ĠdefiniciÃ³n":10042,"gÃ¼enza":10043,"Ġroj":10044,"ĠTen":10045,"ificio":10046,"Ġincidencia":10047,"culaciÃ³n":10048,"Ġestrena":10049,"Ġrepresentan":10050,"ĠAlcalÃ¡":10051,"Ġindividuales":10052,"ĠCeuta":10053,"ervados":10054,"ika":10055,"Ġpiernas":10056,"ĠeliminaciÃ³n":10057,"Ġtribunales":10058,"Ġdiputada":10059,"ĠiniciÃ³":10060,"Ġduelo":10061,"Ġbac":10062,"ĠautÃ³noma":10063,"ĠNadal":10064,"Ġinex":10065,"ĠRomero":10066,"Ġhal":10067,"Ġdas":10068,"Ġcorpora":10069,"tener":10070,"Ġsaludo":10071,"CN":10072,"Ã¡ndal":10073,"Ġahorrar":10074,"Ġrefleja":10075,"Ġediciones":10076,"ĠelectrÃ³nicos":10077,"Ġjugada":10078,"Ġincertid":10079,"clar":10080,"eladas":10081,"ĠdebÃŃa":10082,"Ġpresentada":10083,"Ġpistas":10084,"Ġmel":10085,"Ġrio":10086,"cionistas":10087,"tiner":10088,"Ġagradable":10089,"cando":10090,"Ġreciben":10091,"Ġcapaci":10092,"mag":10093,"Ġetique":10094,"ĠZamora":10095,"blogs":10096,"partamentos":10097,"wer":10098,"ĠDiseÃ±o":10099,"Plan":10100,"Ġresidentes":10101,"util":10102,"Ġtejido":10103,"Ġestric":10104,"Mer":10105,"Ġrelevantes":10106,"Ġmedieval":10107,"Ġelimina":10108,"ĠVER":10109,"Ġtratado":10110,"Ben":10111,"ĠvolverÃ¡":10112,"ĠIndia":10113,"ĠpoesÃŃa":10114,"ĠLen":10115,"ĠsueÃ±os":10116,"Ġarena":10117,"urense":10118,"ĠSalÃ³n":10119,"ĠEspecial":10120,"ĠsÃŃntomas":10121,"ĠpÃ©rdidas":10122,"Ġletra":10123,"Ġconcer":10124,"ĠCarr":10125,"Ã¨ncia":10126,"Ġdocentes":10127,"timas":10128,"ciosa":10129,"Ġfutbolista":10130,"iÃ¡n":10131,"Ġchoque":10132,"Sa":10133,"Ġcolaborar":10134,"AA":10135,"Ġproveedores":10136,"Ġtranscur":10137,"ĠÃ":10138,"person":10139,"ĠreligiÃ³n":10140,"ĠÃ©stos":10141,"aÃ±os":10142,"Ġnavide":10143,"Ġrelacionada":10144,"Ġganan":10145,"Ġbandas":10146,"ĠLabor":10147,"lava":10148,"ĠfotÃ³graf":10149,"ĠEstad":10150,"Ġcamiseta":10151,"terial":10152,"Ġconcluye":10153,"Ġtemporadas":10154,"ania":10155,"Ġsueldo":10156,"Ġlateral":10157,"ĠMercado":10158,"Ġintr":10159,"ÃĳO":10160,"Ġcentrales":10161,"Ġtecho":10162,"incu":10163,"gencia":10164,"Ġregistrados":10165,"ĠPlay":10166,"ĠestÃ©tica":10167,"Ġcharla":10168,"Ġbrillante":10169,"88":10170,"Ġignor":10171,"ĠToni":10172,"Ġterritorios":10173,"ĠrecepciÃ³n":10174,"ĠautonÃ³mica":10175,"Ġrico":10176,"Ã±al":10177,"Ġcopia":10178,"mÃ¡ticamente":10179,"ĠpodÃŃan":10180,"ĠLibro":10181,"Ġcaras":10182,"ĠbritÃ¡nica":10183,"Ġdescarga":10184,"Ġinmediatamente":10185,"Ġsobres":10186,"imnas":10187,"Ġcomisiones":10188,"ĠmÃ¡g":10189,"Ġsuperado":10190,"ĠFoto":10191,"Ġmedicina":10192,"Junto":10193,"Ġfueran":10194,"Ġquieras":10195,"cela":10196,"Apro":10197,"ĠportÃ¡":10198,"Ġparlamentaria":10199,"Ġdemand":10200,"Ġvigilancia":10201,"Ġprovisional":10202,"Ġsalario":10203,"Ġetiquetas":10204,"Ġnoc":10205,"Ġcitas":10206,"Ġindependentista":10207,"Ġsentimientos":10208,"CD":10209,"Ġfrag":10210,"isco":10211,"Ġcoopera":10212,"Ġparro":10213,"hael":10214,"Ġconsumidor":10215,"ĠcontÃ³":10216,"Ġadvers":10217,"Ġvisual":10218,"Ġchocola":10219,"anti":10220,"Ġparada":10221,"Ġportero":10222,"iedad":10223,"ĠCala":10224,"Ġempresariales":10225,"vÃ¡n":10226,"Ġescribe":10227,"UER":10228,"Ġicono":10229,"ĠHA":10230,"kin":10231,"Ġpoeta":10232,"ĠÃģngeles":10233,"Ġconvocado":10234,"tividades":10235,"Ġmaestra":10236,"Ġrup":10237,"Ġdios":10238,"ise":10239,"ĠGabriel":10240,"Ġestudiante":10241,"Ġsensibilidad":10242,"porque":10243,"ervatorio":10244,"Ġhaces":10245,"iko":10246,"Ġ2001":10247,"Ġpotente":10248,"ĠId":10249,"ĠPapa":10250,"Ġdeje":10251,"Ġaparte":10252,"Ġinfrac":10253,"Ġnace":10254,"ĠPeÃ±a":10255,"Ġenfrenta":10256,"pyright":10257,"Ġdesprend":10258,"asterio":10259,"Etiquetas":10260,"ĠinauguraciÃ³n":10261,"Ġjugando":10262,"Ġcombina":10263,"Ro":10264,"Ġhabil":10265,"Algunas":10266,"Ġsug":10267,"ĠGala":10268,"Go":10269,"Ġingredientes":10270,"Ġdestru":10271,"ximo":10272,"Ġmontaje":10273,"ĠvÃ¡lido":10274,"Ã¡menes":10275,"Ġnomin":10276,"Ġcubierta":10277,"ĠrehabilitaciÃ³n":10278,"Ġaustr":10279,"ode":10280,"TAR":10281,"Ġreservas":10282,"stica":10283,"ĠredacciÃ³n":10284,"gono":10285,"Ġmuebles":10286,"Ġpoliciales":10287,"ĠMejor":10288,"merÃŃa":10289,"Muer":10290,"ĠCuba":10291,"Tienes":10292,"Algo":10293,"ĠEstatal":10294,"Ġriguros":10295,"Ġcircular":10296,"ĠAlta":10297,"pitales":10298,"Ġbasura":10299,"Ġvalenciano":10300,"Ġllegando":10301,"Ambos":10302,"Ġsombra":10303,"Ġrecorrer":10304,"Ġbaloncesto":10305,"Ġsostiene":10306,"ĠelÃ©ctricos":10307,"Ġacontecimientos":10308,"Ġreparar":10309,"ĠSI":10310,"roga":10311,"Ġllaman":10312,"ĠMicrosoft":10313,"Ġnub":10314,"ĠnaciÃ³n":10315,"ĠazÃºcar":10316,"ĠAdri":10317,"dÃ³n":10318,"Ġacoso":10319,"ĠCampeonato":10320,"guÃ©s":10321,"ÃģS":10322,"Ġtransmi":10323,"::":10324,"Sevilla":10325,"Ġfavorito":10326,"ederaciÃ³n":10327,"Ġsabido":10328,"Ġprioridad":10329,"ĠconclusiÃ³n":10330,"Ġpaga":10331,"Ġtransmitir":10332,"ĠGan":10333,"Obtenga":10334,"Ġcuartos":10335,"Ġconscientes":10336,"ĠÃģvila":10337,"Ġmediados":10338,"Respecto":10339,"Otras":10340,"ÃŃcola":10341,"ĠSue":10342,"Ġluces":10343,"Ġpudieron":10344,"Ġdocente":10345,"Ġseme":10346,"ede":10347,"Ġesque":10348,"Ġensay":10349,"Ġinformaciones":10350,"Ġintentando":10351,"ciÃĥ":10352,"Ġtable":10353,"Ġdegus":10354,"Ġconmigo":10355,"abas":10356,"Ġ(\"":10357,"Ġcurr":10358,"Ġsinies":10359,"Gar":10360,"Ph":10361,"cr":10362,"Ġvenezol":10363,"tea":10364,"ĠAf":10365,"Ġ44":10366,"Ġcerem":10367,"Ġactualizaciones":10368,"Ġrub":10369,"ĠfundaciÃ³n":10370,"Ġcaminos":10371,"Util":10372,"Ġdiga":10373,"ĠVictoria":10374,"Ġhem":10375,"ĠVÃ¡zquez":10376,"Ġcreada":10377,"Ġvasca":10378,"Ban":10379,"Ġargumento":10380,"Ġinterno":10381,"ĠOR":10382,"Ġnoctur":10383,"Ġcelebrada":10384,"drÃ¡n":10385,"MarÃŃa":10386,"Ġdesvel":10387,"Ġqueso":10388,"Ġincen":10389,"NE":10390,"Ġcomentado":10391,"lim":10392,"Ġvilla":10393,"ĠBlack":10394,"till":10395,"ĠNet":10396,"END":10397,"Ġocta":10398,"ĠOpen":10399,"Ġdefinir":10400,"Ġexceso":10401,"Ġdistinta":10402,"Ġgor":10403,"tipo":10404,"Ġverdes":10405,"Ġcometido":10406,"Ġafr":10407,"Ġdiaria":10408,"Ġsecretos":10409,"inadas":10410,"ĠHuman":10411,"izka":10412,"icarse":10413,"eses":10414,"Ġgeneraciones":10415,"lico":10416,"ĠbÃ¡sicas":10417,"ĠÃŃndice":10418,"Ġcoger":10419,"ÃŃstrate":10420,"Ġdenunciar":10421,"ĠÃ¡rboles":10422,"Ġsostenibilidad":10423,"Ġperpe":10424,"Ã©sped":10425,"ĠGRA":10426,"Ġvayan":10427,"ĠnotificaciÃ³n":10428,"ĠCervantes":10429,"ĠespecÃŃfico":10430,"Ġagra":10431,"Ġdescubierto":10432,"izas":10433,"Cris":10434,"PR":10435,"Ġcomicios":10436,"inten":10437,"Ġwebs":10438,"Nadie":10439,"dicas":10440,"Ġpunta":10441,"naval":10442,"ĠProyecto":10443,"ĠMolina":10444,"ĠLaura":10445,"Ġdemandas":10446,"Pepa":10447,"ĠFre":10448,"Ġcolon":10449,"].":10450,"Ġceb":10451,"Ġcercana":10452,"Ġpromov":10453,"Ġvascos":10454,"Ġestando":10455,"bloque":10456,"Ġeco":10457,"Ġcaballo":10458,"Ġpuro":10459,"iciosa":10460,"ormes":10461,"bral":10462,"Ġcobrar":10463,"Ġdeterminadas":10464,"ĠPontevedra":10465,"Ġmemor":10466,"zano":10467,"Ġpeligroso":10468,"gÃ³n":10469,"ĠMis":10470,"ĠMich":10471,"taban":10472,"ĠcomitÃ©":10473,"Ġcreatividad":10474,"Ġinsistido":10475,"GE":10476,"Ġtrae":10477,"\";":10478,"ĠXVIII":10479,"ĠWordPress":10480,"URO":10481,"Visita":10482,"Ġcinta":10483,"Ġrurales":10484,"Ã¡ver":10485,"abra":10486,"lamiento":10487,"Ġtuviera":10488,"ĠTes":10489,"Ġ120":10490,"ĠabriÃ³":10491,"Ġtesis":10492,"abo":10493,"Ġdulce":10494,"Ġrelevante":10495,"Ġadolescentes":10496,"Ġclubes":10497,"Ġacusados":10498,"Ġagradecer":10499,"icioso":10500,"Ġaparato":10501,"Ġconlle":10502,"Ġdescuentos":10503,"ĠJuventud":10504,"Fa":10505,"Ġdichas":10506,"Ġdibujos":10507,"Ġalquil":10508,"ĠbaÃ±":10509,"Ġadministrativa":10510,"Ġdespre":10511,"Ġparado":10512,"tusias":10513,"Ġcomposi":10514,"Ġdictadura":10515,"Ġpudieran":10516,"elle":10517,"Ġabusos":10518,"deb":10519,"Ġindican":10520,"ant":10521,"Ġcurioso":10522,"ĠCCOO":10523,"Ġestaciones":10524,"arquÃŃa":10525,"Ġconducir":10526,"ĠLea":10527,"eran":10528,"Ġsupuestos":10529,"ĠSpa":10530,"piedad":10531,"tone":10532,"Ġcreciente":10533,"adilla":10534,"Ġefectivos":10535,"Ġterrenos":10536,"Lib":10537,"Ġhogares":10538,"haus":10539,"ĠSAL":10540,"Ġarbi":10541,"Ġrespaldo":10542,"Ġhiper":10543,"Ġcreemos":10544,"ĠEsteban":10545,"ĠaprobÃ³":10546,"His":10547,"Ġcontund":10548,"ĠtramitaciÃ³n":10549,"estro":10550,"Ġtorre":10551,"Ġvoluntarios":10552,"Ġcolombi":10553,"ĠLeer":10554,"Ġri":10555,"ĠencontrÃ³":10556,"ĠUrban":10557,"ĠcuÃ¡les":10558,"-.":10559,"Ġcreciendo":10560,"jeje":10561,"Ġpur":10562,"ĠVe":10563,"Ġbrazos":10564,"adra":10565,"ĠvacÃŃo":10566,"Ġreligion":10567,"istÃŃa":10568,"Ġaspira":10569,"popul":10570,"Ġcolocar":10571,"Ġreti":10572,"Falta":10573,"Ġlogo":10574,"obo":10575,"Ġvirtud":10576,"Ġconcienci":10577,"ritos":10578,"Ġemis":10579,"Mis":10580,"Ġvege":10581,"Ġguardar":10582,"ĠFC":10583,"ĠGuar":10584,"ĠterminÃ³":10585,"Ġandaluza":10586,"chi":10587,"Ġperf":10588,"Ġvicepresidenta":10589,"lÃ¡mico":10590,"ĠaceptaciÃ³n":10591,"ÃŃrculo":10592,"Ġafectado":10593,"Ġconjunta":10594,"Ġregistros":10595,"Ġfinaliz":10596,"Ġexplicaciones":10597,"ĠcÃ³":10598,"Ġvuelven":10599,"quero":10600,"ĠCondiciones":10601,"Ġllevando":10602,"ĠLavadoras":10603,"rom":10604,"ĠÃºnicos":10605,"CIAL":10606,"Ġincorpora":10607,"Ġilustrada":10608,"Ġesencia":10609,"ĠirÃ¡":10610,"Ġemocional":10611,"sol":10612,"Ġvid":10613,"ĠsÃ©pti":10614,"ĠclÃ¡us":10615,"ciano":10616,"Casa":10617,"ĠGirona":10618,"igen":10619,"Ġcoron":10620,"Ġdebatir":10621,"ĠcadÃ¡ver":10622,"Dec":10623,"Fi":10624,"ĠEduca":10625,"Nada":10626,"Ġaparcamiento":10627,"Ġgigante":10628,"ĠObama":10629,"Ġinsufici":10630,"ĠturÃŃsticos":10631,"Ġprecar":10632,"ĠcomenzarÃ¡":10633,"onor":10634,"ture":10635,"ĠconsideraciÃ³n":10636,"Ġfacilita":10637,"ĠRibera":10638,"ucos":10639,"Ġrelativa":10640,"ĠSA":10641,"Ġdestacados":10642,"ĠTweets":10643,"Ġviva":10644,"Ġbarro":10645,"Ġcuidar":10646,"Ġafectan":10647,"ĠÃģrea":10648,"xa":10649,"ĠSanz":10650,"Ġcritica":10651,"Ġempiez":10652,"estr":10653,"edas":10654,"Piso":10655,"ĠMedicina":10656,"len":10657,"ĠAutor":10658,"ĠMessi":10659,"Ġnuclear":10660,"bierta":10661,"ĠmÃ¡quinas":10662,"buses":10663,"Id":10664,"Ġexplican":10665,"Ġvisitante":10666,"Ġbailar":10667,"ĠorientaciÃ³n":10668,"ĠdeclarÃ³":10669,"Ã©lgica":10670,"Ġfui":10671,"Ġmesas":10672,"Ġevid":10673,"ĠpondrÃ¡":10674,"VD":10675,"Ġfrac":10676,"Ġintervenciones":10677,"Ġejemplares":10678,"ionista":10679,"Ġcompartido":10680,"uz":10681,"ĠDar":10682,"Ġemociones":10683,"Ġdeportivos":10684,"ĠAngel":10685,"Ġfundador":10686,"Ġevolu":10687,"ĠPaul":10688,"ueso":10689,"Ġaluminio":10690,"Ġesperamos":10691,"desd":10692,"Ġcron":10693,"Ã³gicos":10694,"Ġ47":10695,"alismo":10696,"ĠCarles":10697,"Ġprestigio":10698,"Ġreduce":10699,"ADRID":10700,"ĠFuente":10701,"Ġbaile":10702,"Ġcach":10703,"Ġfus":10704,"Ġinsta":10705,"Ġcaj":10706,"ĠRoberto":10707,"Ġdenuncias":10708,"Ġseleccionar":10709,"ĠConven":10710,"Ġsentar":10711,"ashington":10712,"ĠinclusiÃ³n":10713,"Ġfemenina":10714,"Ġ46":10715,"Ġfabricantes":10716,"Ġconcretamente":10717,"Ġabsor":10718,"Ġrentabilidad":10719,"izadas":10720,"Ġsaga":10721,"Ġreaccion":10722,"Escu":10723,"Ġapoya":10724,"Ġprotestas":10725,"mado":10726,"ĠOscar":10727,"Ġcuadros":10728,"Ġlistado":10729,"Ġprofunda":10730,"Ã³sitos":10731,"frad":10732,"Ġdirigir":10733,"Ġreferencias":10734,"Ġprovocar":10735,"ĠexpansiÃ³n":10736,"ifu":10737,"Ġcompromisos":10738,"yendo":10739,"iforn":10740,"ĠlÃŃqu":10741,"Ġamantes":10742,"Ġentiendo":10743,"ĠSr":10744,"Ġpodamos":10745,"ANO":10746,"daje":10747,"ings":10748,"ĠVAL":10749,"Ġemprendedores":10750,"ĠmuriÃ³":10751,"Ġhojas":10752,"TAM":10753,"Ġretr":10754,"ĠexÃ¡menes":10755,"55":10756,"Ġescond":10757,"Ur":10758,"ĠVall":10759,"ĠfÃ¡brica":10760,"ĠEbro":10761,"Ġjoy":10762,"Ġdisponen":10763,"ĠVillan":10764,"Ġesquina":10765,"Ġdimensiones":10766,"pÃ³n":10767,"vera":10768,"Ġexcelencia":10769,"Ġuniversitarios":10770,"TAL":10771,"ĠPepe":10772,"Ġentusias":10773,"desde":10774,"Ġedil":10775,"tigos":10776,"Ġgesto":10777,"clip":10778,"ĠNA":10779,"Ġlong":10780,"Ġincluida":10781,"Ġricos":10782,"ĠPlataforma":10783,"lanos":10784,"Ġpropuesto":10785,"biar":10786,"Ġcriticado":10787,"Ġexistente":10788,"Ġinstante":10789,"trices":10790,"ĠcÃº":10791,"Ġextraordinario":10792,"tock":10793,"ĠFon":10794,"ĠNoche":10795,"OLO":10796,"ĠCÃ³digo":10797,"ĠbÃ¡sico":10798,"BR":10799,"jados":10800,"Ġniega":10801,"ĠCarre":10802,"Ġrob":10803,"Ġprofundo":10804,"Ġfirmar":10805,"ĠMaria":10806,"iÃ³dico":10807,"Ġcrimen":10808,"Ġhisp":10809,"Ġretirar":10810,"ĠHistÃ³r":10811,"Ġinfraestructura":10812,"ĠMUN":10813,"Ġcapacidades":10814,"ĠSen":10815,"comunicaciones":10816,"ĠLuna":10817,"Ġfavorecer":10818,"ĠAustralia":10819,"ĠCientÃŃf":10820,"Ġentrevistas":10821,"Ġreparaciones":10822,"Ġbarra":10823,"aras":10824,"REC":10825,"Ġizquierdo":10826,"ĠTro":10827,"my":10828,"Ġcuyas":10829,"Ġjuvenil":10830,"66":10831,"Ġjuris":10832,"Ġsello":10833,"Ġbomberos":10834,"Ġinvita":10835,"ĠUnida":10836,"Ġsaque":10837,"Ġbrind":10838,"ĠIslas":10839,"Ġdisponibilidad":10840,"etafe":10841,"Ġesperaba":10842,"Ġchino":10843,"ĠtransmisiÃ³n":10844,"ĠElena":10845,"Ġacero":10846,".@":10847,"itiva":10848,"Ġaqu":10849,"ĠAguirre":10850,"Ġdefinitivamente":10851,"ĠSud":10852,"ases":10853,"trico":10854,"Ġpapeles":10855,"Ġcorreg":10856,"sobre":10857,"Ġcomentando":10858,"ĠMarina":10859,"illermo":10860,"Ġdinam":10861,"ĠmÃŃnimas":10862,"Ġorigin":10863,"Ġcumplido":10864,"ĠromÃ¡n":10865,"ĠespecÃŃfica":10866,"tibilidad":10867,"mental":10868,"Ġsanciones":10869,"Ġponga":10870,"rie":10871,"cerdo":10872,"Ġepisodios":10873,"Ġdisfra":10874,"cepto":10875,"ĠTarragona":10876,"Viviendas":10877,"cÃ³mo":10878,"Ġrecuerdos":10879,"Ġelaborar":10880,"Ġintenso":10881,"Ġcalderas":10882,"tense":10883,"Ġepisodio":10884,"edora":10885,"Ġdamos":10886,"Ġmono":10887,"bana":10888,"Ġ\"Â¿":10889,"Ġprotagonismo":10890,"Ġasociados":10891,"uez":10892,"ata":10893,"ĠtelÃ©fonos":10894,"Ġregula":10895,"Ġmachista":10896,"Ġmagia":10897,"Ġline":10898,"ĠprÃ©stamo":10899,"dor":10900,"medi":10901,"Ġconformidad":10902,"arles":10903,"Ġ2002":10904,"ĠTurquÃŃa":10905,"ĠForal":10906,"ĠJames":10907,"ĠacadÃ©mico":10908,"TICA":10909,"Ġhund":10910,"Ġaca":10911,"Ã²":10912,"ĠmamÃ¡":10913,"Ġeficiente":10914,"Ġprotocolo":10915,"Ġcoher":10916,"Ġinterrump":10917,"ISTORIA":10918,"Ġdetectar":10919,"ĠDemoc":10920,"reos":10921,"trica":10922,"Ġsp":10923,"ĠAuton":10924,"Ġfabricante":10925,"ĠTudela":10926,"ĠclÃ¡sicos":10927,"Ġtestigo":10928,"ĠPra":10929,"ĠINTER":10930,"work":10931,"Ġatac":10932,"Ġina":10933,"ĠaÃ±adiÃ³":10934,"ĠplanificaciÃ³n":10935,"uaciÃ³n":10936,"Ġrechaza":10937,"idÃ¡c":10938,"Ġcontempl":10939,"Ġiguales":10940,"Ġalza":10941,"olas":10942,"Ġradical":10943,"xta":10944,"Ġabur":10945,"Ġmedicamentos":10946,"Ġutilidad":10947,"Ġrenuncia":10948,"Ġpea":10949,"Ġrostro":10950,"respons":10951,"Ġvideojuegos":10952,"Ġanticip":10953,"ĠCurso":10954,"quetas":10955,"Ġsent":10956,"Ġprecisa":10957,"ige":10958,"Antonio":10959,"Ġsolitario":10960,"ĠgrÃ¡fico":10961,"Ġcuidados":10962,"ondas":10963,"Ġcomedia":10964,"ĠActu":10965,"mons":10966,"Ġventanas":10967,"Ġpersegu":10968,"ĠMinistros":10969,"Ġintegrantes":10970,"ĠGro":10971,"Ġcertamen":10972,"ĠLes":10973,"igan":10974,"igh":10975,"ĠCadena":10976,"ĠTeruel":10977,"Ġrosa":10978,"lash":10979,"Ġnormalmente":10980,"Ġcortes":10981,"ĠCAL":10982,"Ġveremos":10983,"Pin":10984,"Ġmilitantes":10985,"Ġdeportistas":10986,"ĠRen":10987,"Disfru":10988,"ĠindicÃ³":10989,"Ġconocen":10990,"Ġatentados":10991,"queta":10992,"Ġhecha":10993,"Ġinvoluc":10994,"Ġadmite":10995,"uyendo":10996,"ĠBach":10997,"Descubre":10998,"ĠComentarios":10999,"Ġci":11000,"Ġpotenciar":11001,"Ġeje":11002,"ajar":11003,"puestamente":11004,"Ã³nicas":11005,"Ġobtuvo":11006,"ĠPenal":11007,"hacer":11008,"Ġpecul":11009,"sor":11010,"Ġsirven":11011,"Ã©sar":11012,"trÃ³leo":11013,"ÃŃv":11014,"ĠSofÃŃa":11015,"ĠMÃ¡r":11016,"Ġentrevis":11017,"Ġseria":11018,"Ġembal":11019,"abellÃ³n":11020,"Ġzapatos":11021,"ĠComunitat":11022,"Ġtemplo":11023,"ĠInglÃ©s":11024,"GP":11025,"ĠabstenciÃ³n":11026,"Ġgracia":11027,"hara":11028,"ĠdimisiÃ³n":11029,"Ġautoma":11030,"ĠGuti":11031,"SÃ¡nchez":11032,"Ġitaliana":11033,"ĠJornadas":11034,"ĠdemocrÃ¡tico":11035,"ĠespecÃŃficos":11036,"ĠDonald":11037,"ugÃŃa":11038,"Ġdebates":11039,"alizamos":11040,"ĠJaime":11041,"ĠAsuntos":11042,"Ġgrad":11043,"Ġinsiste":11044,"Ġinvestigar":11045,"Ve":11046,"rilla":11047,"ĠIncl":11048,"ĠAgus":11049,"Ġlargas":11050,"ĠAznar":11051,"Ã©rida":11052,"Ġelegante":11053,"ciÃ©ndo":11054,"Ġcontinente":11055,"Ġorgullo":11056,"ĠveÃŃa":11057,"ĠBienes":11058,"ĠtenÃ©is":11059,"ÃŃdas":11060,"ĠSpor":11061,"Ġexcepcional":11062,"ĠprÃ©stamos":11063,"Ġinto":11064,"Ġimpre":11065,"Ġestablecidos":11066,"Ġmultipl":11067,"Ġdije":11068,"ĠPRES":11069,"VEN":11070,"Ġguardia":11071,"2010":11072,"Ġcafe":11073,"jon":11074,"ĠmÃºsicos":11075,"grafia":11076,"Ġzan":11077,"Ġindign":11078,"uto":11079,"Ġbecas":11080,"tizar":11081,"Ġbaratos":11082,"Ġmotores":11083,"ĠWal":11084,"anismo":11085,"Ġapreci":11086,"isto":11087,"87":11088,"politan":11089,"Ġsalarios":11090,"Ġcod":11091,"Ġsuave":11092,"Ġcoordinador":11093,"Ġmari":11094,"Br":11095,"Ġansi":11096,"Ġinstalado":11097,"Ġsignificado":11098,"Ġancho":11099,"tresmedia":11100,"Ġleyenda":11101,"Ġagricultura":11102,"ĠtelefÃ³nica":11103,"Ġpinta":11104,"Ġruso":11105,"Ġnacionalistas":11106,"Ġsube":11107,"Ġcongel":11108,"ĠHTML":11109,"ĠcuÃ¡ndo":11110,"Ġusos":11111,"ĠidentificaciÃ³n":11112,"Ġacome":11113,"Ġembarazo":11114,"Ġtarifas":11115,"ASA":11116,"ĠprevisiÃ³n":11117,"Ġllevo":11118,"mod":11119,"Ġpermitan":11120,"Ġvotado":11121,"ĠMichael":11122,"Ġdesin":11123,"Ġafectadas":11124,"ĠSosten":11125,"Ġaguan":11126,"Ġunif":11127,"ĠFederal":11128,"Ġnaz":11129,"ĠEstre":11130,"Unos":11131,"Ġtoneladas":11132,"ĠestrÃ©s":11133,"Ġcanta":11134,"Ġrivales":11135,"rana":11136,"Ġ43":11137,"Ġcuello":11138,"Ġeusk":11139,"ĠSor":11140,"Ġamarillo":11141,"ĠentrÃ³":11142,"Ġdependencia":11143,"ĠVerd":11144,"daluces":11145,"ĠCity":11146,"Ġcomparecencia":11147,"Ġpierdas":11148,"Ġpuedas":11149,"anista":11150,"Ġpresentarse":11151,"Ġhospitales":11152,"gadores":11153,"ĠmadrileÃ±a":11154,"Ġasignatura":11155,"ĠMED":11156,"Ġfiel":11157,"ĠLic":11158,"ĠGen":11159,"Haz":11160,"Ġinvitado":11161,"ĠtrÃ¡mite":11162,"Ġ800":11163,"Ġdices":11164,"Ġenfoque":11165,"Ġtoler":11166,"jÃ³":11167,"ticip":11168,"Ġexitos":11169,"Ġincorporar":11170,"Ġingen":11171,"ĠContra":11172,"adÃ¡":11173,"ĠKar":11174,"ny":11175,"ĠejÃ©rcito":11176,"Ġneum":11177,"Ġformada":11178,"Ġbonita":11179,"Ġfacilidad":11180,"ITA":11181,"Ġperjuicio":11182,"ĠBerlÃŃn":11183,"Ġsalga":11184,"ĠSecretarÃŃa":11185,"Ġutilizados":11186,"Ġpoblaciones":11187,"Ġrea":11188,"ĠHenares":11189,"Ġhilo":11190,"Ġdivertido":11191,"mita":11192,"Ġperfiles":11193,"Ġmaneras":11194,"ĠDos":11195,"turado":11196,"rando":11197,"lace":11198,"Ġhorno":11199,"ĠFl":11200,"BO":11201,"Ġabiertos":11202,"guas":11203,"Ġcorrup":11204,"Ġincertidumbre":11205,"Ġox":11206,"Ġestadounidenses":11207,"300":11208,"ĠdesapariciÃ³n":11209,"Luis":11210,"Ġdespacho":11211,"esp":11212,"Ġseguimos":11213,"Ġmodificaciones":11214,"Ġcreando":11215,"bella":11216,"Ġmier":11217,"Ġactitudes":11218,"ĠmuchÃŃsimo":11219,"Cualquier":11220,"Ġmentira":11221,"ĠZona":11222,"Ġ(...)":11223,"ĠDI":11224,"imentar":11225,"Universidad":11226,"Ġitiner":11227,"Ġbares":11228,"Ġradi":11229,"madrid":11230,"koa":11231,"Ġgris":11232,"tanos":11233,"ĠbÃ¡sica":11234,"Ġpracticar":11235,"42":11236,"ĠBru":11237,"Ġofreciendo":11238,"Ġcinemato":11239,"ĠtecnolÃ³gica":11240,"ajaja":11241,"ku":11242,"Ġculmin":11243,"Ġrenovables":11244,"Ġabus":11245,"Ġsuspend":11246,"uca":11247,"Ġcrece":11248,"Aquel":11249,"Ġconstruido":11250,"Ġsaludable":11251,"itorios":11252,"Ġmarcador":11253,"TIV":11254,"%).":11255,"ÃŃsimas":11256,"seÃ±":11257,"Javier":11258,"Ġascend":11259,"ning":11260,"Introduce":11261,"Ġintegrado":11262,"ĠserÃŃan":11263,"Ġdestinados":11264,"Ġgenerado":11265,"Ġprocedente":11266,"ĠdifÃŃciles":11267,"otas":11268,"Ġaparatos":11269,"Ã³tica":11270,"Ġaterr":11271,"Ġextreme":11272,"Ġnacionalidad":11273,"izkaia":11274,"Ġsucedido":11275,"tua":11276,"ĠEdiciones":11277,"Ġapoyos":11278,"Ġvisitado":11279,"Ġadvertido":11280,"Ġgravedad":11281,"ĠbaÃ±os":11282,"Ġpilotos":11283,"ĠPeriÃ³dico":11284,"Ġofrecido":11285,"ĠDocu":11286,"ĠBolsa":11287,"ĠVOLUM":11288,"ĠinformÃ¡tica":11289,"Ġoficio":11290,"Ġjunta":11291,"Â®":11292,"ĠContacto":11293,"Ġlisto":11294,"Ġordenadores":11295,"Ġlaboratorio":11296,"Ġinformativo":11297,"eraciones":11298,"Casi":11299,"asa":11300,"Ġrecep":11301,"ĠespectÃ¡culos":11302,"iete":11303,"ĠResta":11304,"bate":11305,"hop":11306,"Ġdias":11307,"NI":11308,"Ġimpresionante":11309,"Ġresultar":11310,"Ġcelebran":11311,"Investi":11312,"ĠPromo":11313,"Ġinterv":11314,"ĠBay":11315,"ĠescÃ¡ndal":11316,"ĠFal":11317,"ĠapareciÃ³":11318,"ĠMarcos":11319,"Carlos":11320,"Ġsuponen":11321,"ĠRaÃºl":11322,"Ind":11323,"Ġexclusivo":11324,"Ġconserva":11325,"ĠJerez":11326,"trina":11327,"Ġlook":11328,"Ġcolaboradores":11329,"Ġeng":11330,"ĠÃ³rdenes":11331,"ĠproyecciÃ³n":11332,"Ġsatisfa":11333,"ĠOri":11334,"ĠartÃŃstica":11335,"wslet":11336,"Ãīl":11337,"EA":11338,"culares":11339,"ĠseÃ±alar":11340,"Ġaves":11341,"ĠPublicidad":11342,"Ġpaquete":11343,"Ġchav":11344,"Ġcomunica":11345,"scar":11346,"Ġfals":11347,"Ġchocolate":11348,"cuenta":11349,"Ġempezado":11350,"ĠIR":11351,"ĠlÃ³gica":11352,"Ġinvas":11353,"ĠDin":11354,"Ġtambin":11355,"ĠCro":11356,"Ġultr":11357,"anÃ©s":11358,"Ġconveniente":11359,"ote":11360,"ot":11361,"guay":11362,"Ġsentimiento":11363,"Ġdeseos":11364,"ĠconstituciÃ³n":11365,"Ġdesaparecido":11366,"grÃ¡ficas":11367,"Ġinstrucciones":11368,"Ġvalorado":11369,"Ġmasco":11370,"ĠLatina":11371,"ĠExteriores":11372,"Ġrecorr":11373,"ĠWashington":11374,"loristeria":11375,"sea":11376,"Ġinstituto":11377,"ĠdiscriminaciÃ³n":11378,"Ġautora":11379,"sung":11380,"Ġ52":11381,"Ġbomba":11382,"Ġbasta":11383,"PRO":11384,"ĠcayÃ³":11385,"68":11386,"dulo":11387,"sus":11388,"ĠTomÃ¡s":11389,"mus":11390,"Sea":11391,"menos":11392,"ERS":11393,"Ġpesca":11394,"kis":11395,"ĠEmer":11396,"ĠCL":11397,"Ġdosis":11398,"bÃ³l":11399,"ISTA":11400,"ĠEstra":11401,"Ġabuso":11402,"tariado":11403,"ĠtrÃ¡mites":11404,"prim":11405,"ihad":11406,"Ġpreciso":11407,"ÃŃculas":11408,"aS":11409,"ĠEMP":11410,"ĠdueÃ±o":11411,"ĠConcurso":11412,"Ġdedicar":11413,"Ã¡ndolo":11414,"Ġsospech":11415,"Ġrebo":11416,"logos":11417,"Ġfuturos":11418,"iega":11419,"ĠhectÃ¡":11420,".:":11421,"ĠVillanueva":11422,"Ġobr":11423,"way":11424,"Ġguarda":11425,"peci":11426,"Ġnegativo":11427,"Ġhielo":11428,"ĠQU":11429,"Ġantiguas":11430,"cÃ©u":11431,"Ġaumentado":11432,"ĠHerrera":11433,"Ġfrenar":11434,"Ġregresar":11435,"ĠmÃŃnimos":11436,"Ġvivimos":11437,"Ġcuch":11438,"ĠofrecerÃ¡":11439,"rerÃŃa":11440,"omosex":11441,"Ġdemues":11442,"Ġexistir":11443,"TEN":11444,"aves":11445,"dados":11446,"Ġdispuestos":11447,"Ġaprobada":11448,"Ġedades":11449,"ĠIbiza":11450,"Ġdesarrollando":11451,"vancia":11452,"ĠRicardo":11453,"ĠmatemÃ¡ticas":11454,"ĠexplicaciÃ³n":11455,"Ġdefine":11456,"rabe":11457,"EX":11458,"mio":11459,"Ġdenominado":11460,"Ġpatio":11461,"idi":11462,"Ġpelota":11463,"ĠFinanci":11464,"estiona":11465,"Ġaccesorios":11466,"Orden":11467,"Ġganadores":11468,"DES":11469,"pald":11470,"ĠFel":11471,"ĠTorra":11472,"Ġoptar":11473,"Ġvib":11474,"ulto":11475,"ĠUni":11476,"ĠencontrarÃ¡s":11477,"Ġunido":11478,"ĠcaÃŃdo":11479,"Ġprofesora":11480,"ĠiluminaciÃ³n":11481,"remo":11482,"Ġgimnas":11483,"Ġhice":11484,"Ġllevamos":11485,"andia":11486,"guera":11487,"Ġextraordinaria":11488,"ĠWa":11489,"uesto":11490,"Ġpromociones":11491,"Edi":11492,"ĠtÃ¡c":11493,"ĠGor":11494,"Ġincapa":11495,"Ġtuve":11496,"mÃ³n":11497,"ĠConsistorio":11498,"ĠNi":11499,"Ġ85":11500,"Ġinvestigador":11501,"ĠFr":11502,"Ġprevisiones":11503,"ĠInm":11504,"ĠemociÃ³n":11505,"Ã¡u":11506,"cuando":11507,"Ġacaban":11508,"Ġtrascend":11509,"Ġmantuvo":11510,"idable":11511,"blogspot":11512,"cÃ¡n":11513,"Ġpop":11514,"Ġdiscul":11515,"ĠCic":11516,"idane":11517,"ĠnÃºcleo":11518,"ĠConsul":11519,"torÃŃa":11520,"Ġ41":11521,"olencia":11522,"Ġabandono":11523,"ĠmontÃ³n":11524,"ĠNicolÃ¡s":11525,"tand":11526,"enciado":11527,"Ġcumbre":11528,"for":11529,"ĠdinÃ¡mica":11530,"Muere":11531,"ĠPed":11532,"Nin":11533,"quipo":11534,"ĠCreative":11535,"Ġencuentras":11536,"hasta":11537,"Debe":11538,"Ġbolsas":11539,"ursos":11540,"ĠEnergÃŃa":11541,"Ġvueltas":11542,"Ġacordado":11543,"Ġsalarial":11544,"Ġsupuestamente":11545,"ĠvergÃ¼enza":11546,"Ġintentado":11547,"Ġcartera":11548,"cher":11549,"ĠobstÃ¡":11550,"Ġnormalidad":11551,"rador":11552,"Ġcultivo":11553,"Ġfort":11554,"gina":11555,"Ġsigo":11556,"ĠcÃ©":11557,"Ġpreguntado":11558,"Ġapuntan":11559,"ĠURL":11560,"Ġparedes":11561,"Vi":11562,"Ġdada":11563,"idro":11564,"ĠSecciÃ³n":11565,"copa":11566,"Ġregener":11567,"Ġcarro":11568,"77":11569,"Ġtrag":11570,"Ġmalas":11571,"zu":11572,"Sub":11573,"illones":11574,"Ġunir":11575,"ĠextinciÃ³n":11576,"ĠacusaciÃ³n":11577,"ÃŃsimos":11578,"Ġtranquilo":11579,"ester":11580,"ĠcalefacciÃ³n":11581,"ĠWi":11582,"obia":11583,"Ġrespetar":11584,"Ġsacerdo":11585,"Ġcapitales":11586,"Ġsensaciones":11587,"ĠArquitec":11588,"Ġfamosos":11589,"TB":11590,"Ġtengas":11591,"ĠmÃ©dica":11592,"Ġsuponer":11593,"Ġayudan":11594,"Ġartificial":11595,"pula":11596,"Ġdirectivos":11597,"ĠEstella":11598,"Ġmandar":11599,"ĠEH":11600,"Ġbuscas":11601,"df":11602,"redo":11603,"Min":11604,"Ġdisfruta":11605,"ĠcÃ³modo":11606,"Ġcomprob":11607,"ĠintentÃ³":11608,"ĠDen":11609,"ĠMarketing":11610,"Ġtirar":11611,"Ġdiarios":11612,"ĠTel":11613,"Primero":11614,"Ġautobuses":11615,"ĠEnfer":11616,"onado":11617,"Ġecos":11618,"ĠDelegaciÃ³n":11619,"mejor":11620,"ĠsÃŃmbolo":11621,"ĠCaixa":11622,"ĠDani":11623,"ĠJack":11624,"ija":11625,"ĠAlto":11626,"Ġhuevos":11627,"ĠCooperaciÃ³n":11628,"Ġindependientes":11629,"itz":11630,"Ġrumbo":11631,"ĠpetrÃ³leo":11632,"udio":11633,"Ġparques":11634,"Ġecu":11635,"ĠcapitÃ¡n":11636,"Ġadoptar":11637,"ÃģN":11638,"Ġmotos":11639,"ĠPublicaciones":11640,"Ġtraspas":11641,"ĠCAN":11642,"Miguel":11643,"ifuentes":11644,"ĠCristiano":11645,"Ġlongitud":11646,"Fal":11647,"ĠMÃ¡ster":11648,"ĠDolores":11649,"Ã³micas":11650,"ajos":11651,"cionista":11652,"Ġensal":11653,"ĠprecisiÃ³n":11654,"Ġandaluces":11655,"ĠenergÃŃas":11656,"ĠPuerta":11657,"Ġaportaciones":11658,"Ġempleos":11659,"Ġreunido":11660,"Ġindicar":11661,"Ġsuena":11662,"ĠÃ©xitos":11663,"ĠpasarÃ¡":11664,"ĠJudicial":11665,"hesiÃ³n":11666,"onostia":11667,"Ġcomodidad":11668,"ĠSara":11669,"Ġatraves":11670,"Ġimaginar":11671,"Ġconductores":11672,"ĠVÃŃa":11673,"!,":11674,"pod":11675,"elaciÃ³n":11676,"Ġfachada":11677,"ĠinstantÃ¡neamente":11678,"IU":11679,"Ġinformamos":11680,"terales":11681,"ĠvÃŃn":11682,"set":11683,"ĠBara":11684,"ĠAcuerdo":11685,"OP":11686,"pus":11687,"Ġlegalidad":11688,"Ã¡zar":11689,"Ġconvencido":11690,"Ġsar":11691,"ocen":11692,"Rep":11693,"Ġcontando":11694,"Ġmulta":11695,"Ġcable":11696,"Ġexpresado":11697,"ĠCommons":11698,"Ġbrutal":11699,"rÃ¡fico":11700,"Ġimplicados":11701,"ĠanimaciÃ³n":11702,"ult":11703,"tÃ¡ndo":11704,"Ġlluvias":11705,"Ġregionales":11706,"ĠCorea":11707,"ĠpÃ¡rrafo":11708,"Ġmanteniendo":11709,"ĠgrabaciÃ³n":11710,"Ã³tico":11711,"oooo":11712,"Ġhomosex":11713,"Ġclaras":11714,"Ġpecho":11715,"tosa":11716,"ĠIngenierÃŃa":11717,"Ġgole":11718,"landia":11719,"Soci":11720,"Gal":11721,"gramas":11722,"icis":11723,"Ġasamblea":11724,"\",\"":11725,"Ġenemigo":11726,"Ġmonte":11727,"Ġcomparte":11728,"Ġfases":11729,"edras":11730,"ĠAri":11731,"ĠartÃŃstico":11732,"Ġobligatorios":11733,"ÃŃsica":11734,"Ġadicionales":11735,"Ġtest":11736,"ivia":11737,"ĠOF":11738,"ocar":11739,"ben":11740,"Ġconcil":11741,"Ġetapas":11742,"landa":11743,"ĠCopyright":11744,"Ġasturiano":11745,"DirecciÃ³n":11746,"Ġdestina":11747,"Ġoeste":11748,"Ġprofesorado":11749,"Ġcadenas":11750,"Ella":11751,"garon":11752,"Ġrecopil":11753,"Ġlitros":11754,"ĠMoto":11755,"ĠLeague":11756,"Ġderivados":11757,"Usted":11758,"lywood":11759,"Ġcontroles":11760,"Ġprevistos":11761,"alista":11762,"ocimiento":11763,"Lugar":11764,"ĠexclusiÃ³n":11765,"Ġadaptar":11766,"tiza":11767,"Ġmeteor":11768,"ĠLis":11769,"Ġcomedor":11770,"ĠJunio":11771,"ĠrecordÃ³":11772,"Ġfutura":11773,"Ġsujeto":11774,"ĠEstatuto":11775,"Ġrepu":11776,"Ġescenas":11777,"ĠBÃ©lgica":11778,"ĠVOLUMENES":11779,"Ġtomando":11780,"ĠvivÃŃa":11781,"Ġeter":11782,"Ġubicada":11783,"Ġajuste":11784,"ĠColec":11785,"hh":11786,"Ġfundamentalmente":11787,"ĠconducciÃ³n":11788,"ĠconocÃŃa":11789,"AÃ±ade":11790,"Ġcastillo":11791,"ward":11792,"ĠautÃ©ntica":11793,"ĠDur":11794,"ĠmÃºsico":11795,"eller":11796,"ING":11797,"cistas":11798,"Ġdependiendo":11799,"Ġpasaron":11800,"ANTE":11801,"Ġsimpa":11802,"ezcan":11803,"Ġsustituir":11804,"Clar":11805,"Ġestilos":11806,"ony":11807,"ĠVar":11808,"Ġcompara":11809,"crita":11810,"ĠsanciÃ³n":11811,"ĠCatedral":11812,"Ġhierro":11813,"\")":11814,"Ġmedias":11815,"ĠHel":11816,"cast":11817,"ĠBelÃ©n":11818,"kel":11819,"Ġentrado":11820,"Ã©rrez":11821,"ĠextraÃ±o":11822,"Ġagencias":11823,"Ġagricul":11824,"Ġbosque":11825,"Ġbienvenida":11826,"ĠtecnolÃ³gico":11827,"ĠPalencia":11828,"SuscrÃŃbete":11829,"uir":11830,"Ġdanza":11831,"Ġcombate":11832,"ĠdomÃ©s":11833,"Ġhubieran":11834,"Ġparticiparon":11835,"ĠRA":11836,"ĠpermitiÃ³":11837,"ĠNob":11838,"Ġ112":11839,"ĠmÃ¡ster":11840,"Ġdesarrolladores":11841,"mann":11842,"400":11843,"ĠfÃŃsicas":11844,"PI":11845,"ĠPAÃįS":11846,"Ġmediter":11847,"CC":11848,"Ġruptura":11849,"Ġalrededores":11850,"Ġpuls":11851,"bes":11852,"tavoces":11853,"organ":11854,"Ġpasta":11855,"ĠAnton":11856,"unos":11857,"Ġarries":11858,"tificado":11859,"Ġcusto":11860,"ĠBA":11861,"EG":11862,"ĠPascu":11863,"Ġpeores":11864,"CES":11865,"adera":11866,"ĠPropiedad":11867,"Ġindividuo":11868,"Ġintroduce":11869,"Ġimpide":11870,"tza":11871,"entamiento":11872,"ĠStre":11873,"ĠClÃŃn":11874,"ĠclÃ¡sica":11875,"ĠAires":11876,"Ġvera":11877,"ĠCompos":11878,"Ġcentra":11879,"ĠAÃ±o":11880,"Ġdibujo":11881,"Ġsolicita":11882,"ĠBBVA":11883,"Ġadministrativo":11884,"ĠfalleciÃ³":11885,"iquen":11886,"Tend":11887,"Ġembaj":11888,"obiliario":11889,"ĠRev":11890,"ĠPDF":11891,"Ġparad":11892,"Ġejemplar":11893,"Organ":11894,"afas":11895,"liga":11896,"ĠEntre":11897,"MAS":11898,"iblan":11899,"Ã¡ndonos":11900,"ĠhÃ©ro":11901,"ĠOlÃŃmp":11902,"Ġfar":11903,"43":11904,"Ġmanio":11905,"ĠOriente":11906,"Ġsuya":11907,"ĠboletÃŃn":11908,"Ġenve":11909,"CAL":11910,"Ġproductores":11911,"Ġsupermer":11912,"Ġinmueble":11913,"ĠenergÃ©tico":11914,"pea":11915,"fico":11916,"Ġremar":11917,"Ġmortal":11918,"traciÃ³n":11919,"Ġtransferencia":11920,"Ġacusaciones":11921,"Ġtalla":11922,"Ġdesbloque":11923,"ĠWilliam":11924,"...\"":11925,"Ġherido":11926,"uyen":11927,"Ġservido":11928,"Ġestuvieron":11929,"Ġparlamentarios":11930,"Ġconducta":11931,"Ġfrases":11932,"ges":11933,"bios":11934,"Ġarmon":11935,"Ġusado":11936,"ĠcreÃ³":11937,"geci":11938,"Ġponemos":11939,"Ġgigantes":11940,"Ġblancos":11941,"Ġrechazado":11942,"ĠPerÃº":11943,"rÃ¡c":11944,"ĠcÃ¡nta":11945,"ĠespecÃŃficas":11946,"Ġfilial":11947,"Ġdilig":11948,"gio":11949,"Ġestal":11950,"Ġ95":11951,"Ġprevistas":11952,"ĠJunqueras":11953,"ĠMarco":11954,"Ġber":11955,"ĠFamilia":11956,"ĠRodrigo":11957,"ĠIndustrial":11958,"ĠAcon":11959,"Ġfracas":11960,"ĠdiscusiÃ³n":11961,"?\"":11962,"viar":11963,"Ġpescado":11964,"Ġconvencer":11965,"ĠseÃ±ora":11966,"Igualmente":11967,"ĠEsper":11968,"ĠFOR":11969,"tables":11970,"Ġparados":11971,"Ġbajada":11972,"Ġfinanciar":11973,"ĠÃ©stas":11974,"Ġsobr":11975,"cionan":11976,"ĠXII":11977,"ĠrecibirÃ¡":11978,"Ġfuncionar":11979,"DiseÃ±o":11980,"Ġcompetitividad":11981,"pany":11982,"Ġpersonalmente":11983,"ĠArro":11984,"contra":11985,"iense":11986,"Ġfuga":11987,"ĠacogerÃ¡":11988,"Ġsalidas":11989,"ĠAsia":11990,"Ġfijo":11991,"Ġrelevancia":11992,"ĠRet":11993,"incesa":11994,"ĠDIS":11995,"Ġreparacion":11996,"Aviso":11997,"Ġindividuos":11998,"Ġdesayuno":11999,"ĠEdad":12000,"Ġnavarra":12001,"ĠReparacion":12002,"Ġquedaron":12003,"PF":12004,"Ġindefin":12005,"ĠGetafe":12006,"ĠCalidad":12007,"edos":12008,"illerato":12009,"ĠOnline":12010,"ĠhectÃ¡reas":12011,"Ġfinca":12012,"CuÃ¡l":12013,"ĠFuen":12014,"ERC":12015,"ĠdelegaciÃ³n":12016,"Ġconcursos":12017,"heim":12018,"gol":12019,"ĠestadÃŃsticas":12020,"ĠCampos":12021,"Ġdisciplina":12022,"Ġ49":12023,"2007":12024,"Ġemitir":12025,"ĠimaginaciÃ³n":12026,"Ġcompromete":12027,"ĠpÃºblicamente":12028,"ĠEva":12029,"ĠXVII":12030,"yl":12031,"Ġproxim":12032,"ĠIslÃ¡mico":12033,"Ġindependentismo":12034,"tÃ©rpre":12035,"Ana":12036,"Contin":12037,"hoy":12038,"Ġmaquinaria":12039,"ĠhabÃ©is":12040,"ecemos":12041,"bon":12042,"ĠCentros":12043,"ĠPrado":12044,"trabaj":12045,"67":12046,"Liga":12047,"Ġcated":12048,"ĠhÃŃ":12049,"tuvieron":12050,"Cuatro":12051,"Ġpreserv":12052,"Ġregla":12053,"Ġpir":12054,"jeras":12055,"ĠED":12056,"Ġconcluido":12057,"Ġmales":12058,"Ġalberg":12059,"Ġgustos":12060,"aaaa":12061,"ĠTecnologÃŃa":12062,"ferencias":12063,"Ġconviene":12064,"Ġsuceso":12065,"Ġfunda":12066,"box":12067,"Ġanunciar":12068,"ĠGÃ¼":12069,"Ġfichero":12070,"mate":12071,"Trans":12072,"ĠclÃŃnica":12073,"Ġrecurrir":12074,"Ġretraso":12075,"ĠdevoluciÃ³n":12076,"Ġpeculiar":12077,"Ġfavorable":12078,"ĠAU":12079,"Ġminim":12080,"dipu":12081,"ĠTS":12082,"ENER":12083,"Ġmuro":12084,"Pregun":12085,"Ġprimaria":12086,"ANDO":12087,"ĠdiseÃ±os":12088,"Ġsemin":12089,"sex":12090,"ĠTex":12091,"Ġoccidental":12092,"Ġfranquismo":12093,"Noticias":12094,"Ġmigra":12095,"Ġbordo":12096,"Ġexcepto":12097,"DD":12098,"ĠJard":12099,"ticiÃ³n":12100,"Men":12101,"Ġaccesibilidad":12102,"janos":12103,"Ġpretenden":12104,"Ġtraer":12105,"olla":12106,"ĠEmilio":12107,"Ġrespald":12108,"Ġpude":12109,"ĠAso":12110,"st":12111,"ĠdidÃ¡c":12112,"Ġescritos":12113,"cribirse":12114,"Ġfrecuentes":12115,"Ġrid":12116,"Ġextender":12117,"ĠquedarÃ¡":12118,"Ġapostar":12119,"igor":12120,"ĠBÃ¡r":12121,"Ġrecomendable":12122,"bien":12123,"cionadas":12124,"Ġrica":12125,"erez":12126,"CIOS":12127,"pada":12128,"ĠPortal":12129,"emora":12130,"ĠparÃ¡":12131,"itable":12132,"Ġele":12133,"Ġdecimos":12134,"ĠPoder":12135,"ĠLleida":12136,"Ġbarato":12137,"Ġincons":12138,"vistar":12139,"Ġnuevamente":12140,"Ġoscuro":12141,"ĠLucas":12142,"Ġsustan":12143,"Ġmueve":12144,"Ġsometer":12145,"ĠcumpleaÃ±os":12146,"Ġempiezan":12147,"licos":12148,"Ġintensa":12149,"Ġapete":12150,"Ġreduc":12151,"Ġsentirse":12152,"irig":12153,"seguridad":12154,"Ġtestigos":12155,"Ġbau":12156,"lig":12157,"ĠCÃ©sar":12158,"41":12159,"Ġrepos":12160,"Ġdirectores":12161,"Ġmontar":12162,"Ġsemifinales":12163,"Ġmecanismo":12164,"Ġluna":12165,"Ġgerente":12166,"Ġbanquillo":12167,"Tan":12168,"89":12169,"Ġintu":12170,"Correo":12171,"':":12172,"guer":12173,"vez":12174,"Ġsuyos":12175,"ĠSÃŃ":12176,"Ġhig":12177,"Ġasimismo":12178,"Form":12179,"Ġarroz":12180,"ifornia":12181,"ĠsuscripciÃ³n":12182,"Ġjardines":12183,"Ġceremonia":12184,"ĠcalificaciÃ³n":12185,"IÃĵN":12186,"Ġincluidas":12187,"Ġagro":12188,"Ġaudiovisual":12189,"ips":12190,"Ġvea":12191,"Ġcostum":12192,"Don":12193,"Ġdirecciones":12194,"ĠGrado":12195,"Ġsaca":12196,"Ġconocidas":12197,"Ġnacionalismo":12198,"omen":12199,"Ġproceder":12200,"CS":12201,"Ġpolvo":12202,"Ġabsur":12203,"Mur":12204,"tecar":12205,"Ġyihad":12206,"uega":12207,"cianos":12208,"LES":12209,"Ġempleado":12210,"Ġreclamar":12211,"ĠIrÃ¡n":12212,"Ġescritura":12213,"Ġmodos":12214,"ĠSecretario":12215,"Ġpredic":12216,"Ġdejaron":12217,"ividad":12218,"Ġbuscador":12219,"Ġaulas":12220,"And":12221,"ĠMontero":12222,"Ġmedioambiental":12223,"Ġcalific":12224,"Ġcarteles":12225,"Ġguitarra":12226,"cede":12227,"Ġalmacenamiento":12228,"Ġescog":12229,"Ġtrataba":12230,"etermin":12231,"Ġvictorias":12232,"Ġespl":12233,"Ġexcusa":12234,"ĠMI":12235,"Ġconmemor":12236,"Ġga":12237,"ĠMujeres":12238,"Ġalcaldes":12239,"ĠGuillermo":12240,"ĠNuestra":12241,"Ġdesactivados":12242,"ĠacompaÃ±ada":12243,"Ġusan":12244,"ĠDirectiva":12245,"ĠRon":12246,"ĠSand":12247,"ĠIES":12248,"Ġhueco":12249,"Ġrecupera":12250,"Ġlimitar":12251,"leto":12252,"Ġnoved":12253,"tÃ¡ndose":12254,"Ġtoro":12255,"umer":12256,"Poco":12257,"Ġimpone":12258,"Ġmuseos":12259,"Ġoptimizar":12260,"Cl":12261,"Ġafectar":12262,"ĠSerrano":12263,"Ġdefici":12264,"Ġsorprendente":12265,"Ġplane":12266,"iler":12267,"QuizÃ¡s":12268,"Ġaventuras":12269,"ilitado":12270,"iki":12271,"Ġdientes":12272,"ĠtomÃ³":12273,"1999":12274,"Cin":12275,"ĠRena":12276,"Ġobtenidos":12277,"Existen":12278,"Ġdifundir":12279,"Ġcuarenta":12280,"ĠdestrucciÃ³n":12281,"animidad":12282,"TVE":12283,"Ġpiensan":12284,"Ġsalsa":12285,"estÃ¡":12286,"ĠmÃ¡r":12287,"2015":12288,"exo":12289,"ĠimplicaciÃ³n":12290,"ĠGoya":12291,"Ġcompetente":12292,"Ġprecioso":12293,"Person":12294,"Ġhistori":12295,"Ġverlo":12296,"Ġavanzada":12297,"Ġllevaron":12298,"drÃŃa":12299,"Ġguapa":12300,"cisamente":12301,"Ġoral":12302,"ĠsubvenciÃ³n":12303,"oper":12304,"Ġvieja":12305,"ĠCanadÃ¡":12306,"Ġconectar":12307,"toso":12308,"ĠAmazon":12309,"Ġentero":12310,"gras":12311,"ĠFuerzas":12312,"Ġdepos":12313,"ĠhablÃ³":12314,"grÃ¡ficos":12315,"icando":12316,"pedal":12317,"ĠdesafÃŃo":12318,"Ġterminal":12319,"ĠGutiÃ©rrez":12320,"ĠGri":12321,"Ġconcejala":12322,"ĠllamÃ³":12323,"entino":12324,"queros":12325,"Lena":12326,"ĠpolÃ©m":12327,"ĠfusiÃ³n":12328,"chester":12329,"Ne":12330,"ĠviviÃ³":12331,"ĠportuguÃ©s":12332,"ildo":12333,"ĠLorca":12334,"Ġcantar":12335,"Ġcandidaturas":12336,"EDAD":12337,"magen":12338,"Ġtrenes":12339,"ADOR":12340,"Ġgolf":12341,"ivera":12342,"Hablamos":12343,"iguiendo":12344,"Ġcapi":12345,"Ġcerveza":12346,"Ġfama":12347,"ĠBrexit":12348,"Ġcuotas":12349,"Ġtercio":12350,"Ġinmuebles":12351,"ĠreconociÃ³":12352,"arlos":12353,"Ġvertic":12354,"Ġfomento":12355,"ĠtÃºn":12356,"Ġdistrito":12357,"Ġutilizada":12358,"TROS":12359,"Ġministros":12360,"ĠCand":12361,"back":12362,"INO":12363,"ĠlingÃ¼":12364,"terias":12365,"iante":12366,"ĠRobert":12367,"HO":12368,"uu":12369,"Ġsustancias":12370,"Ġbrazo":12371,"Ġalianza":12372,"ĠCasas":12373,"tÃ©s":12374,"Ġpersi":12375,"ĠVera":12376,"ĠSecund":12377,"????":12378,"Ġdram":12379,"Ġsecundaria":12380,"biles":12381,"Ġsilla":12382,"ĠdepÃ³sito":12383,"uces":12384,"ĠAlcald":12385,"vecha":12386,"Ġcontemplar":12387,"Ġpeticiones":12388,"tenidos":12389,"Leer":12390,"Ġfranceses":12391,"ĠCha":12392,"iÃ©ndo":12393,"ĠSig":12394,"ieres":12395,"drome":12396,"arde":12397,"Ġcomenzaron":12398,"idia":12399,"ĠCompaÃ±":12400,"Ġterremo":12401,"Ġcarbono":12402,"Ġreloj":12403,"Ġbloqueo":12404,"ĠtemÃ¡tica":12405,"cÃ©n":12406,"ĠVoz":12407,"Ġposteriores":12408,"ĠRol":12409,"Ġnombramiento":12410,"gener":12411,"Ġficha":12412,"ĠFo":12413,"ĠMend":12414,"Ã¶":12415,"Ġencanto":12416,"Ġlegado":12417,"ĠinmigraciÃ³n":12418,"ĠCond":12419,"Ġuniversitaria":12420,"Ġcircunstancia":12421,"Ġgolpes":12422,"ĠBuenos":12423,"allado":12424,"Ġaula":12425,"ĠFerr":12426,"\"...":12427,"ĠSegura":12428,"ĠperdÃ³n":12429,"Ġaltamente":12430,"carga":12431,"ĠNÃº":12432,"Ġads":12433,"ĠBi":12434,"youtu":12435,"ÃŃe":12436,"Ġabo":12437,"tex":12438,"ĠmediodÃŃa":12439,"Ġce":12440,"Ġcoinciden":12441,"tÃŃan":12442,"Ã³dulo":12443,"Ġexhaus":12444,"Conf":12445,"Ġrecogido":12446,"ARIA":12447,"EF":12448,"ille":12449,"olau":12450,"ĠLeo":12451,"Ag":12452,"Ġconvierten":12453,"ĠGr":12454,"Ġfeste":12455,"Ġcuantas":12456,"Ġprocede":12457,"ĠÃ³pti":12458,"Ġsecciones":12459,"86":12460,"Ġcopa":12461,"ĠConcejal":12462,"Ġpriva":12463,"ĠpodrÃŃamos":12464,"jarse":12465,"Ġsuministr":12466,"Compar":12467,"Ġverla":12468,"Ġestablecen":12469,"Ġexci":12470,"ĠDVD":12471,"Ġdirectos":12472,"ĠmovilizaciÃ³n":12473,"Ġmisterio":12474,"Ġmm":12475,"Ġacostumbr":12476,"Ġsienten":12477,"mÃ³s":12478,"raya":12479,"Ġfacultad":12480,"Ġdobles":12481,"Ġconstituyen":12482,"Ġdesemple":12483,"recciÃ³n":12484,"ĠBoletÃŃn":12485,"Ġreferido":12486,"Ġpales":12487,"Ġpalacio":12488,"Ġregistrarte":12489,"ĠadjudicaciÃ³n":12490,"ĠZa":12491,"Ġderechas":12492,"Ġtriple":12493,"gicos":12494,"Ġultra":12495,"Ġcontro":12496,"Ġencantado":12497,"cav":12498,"Entrevista":12499,"MÃ¡laga":12500,"ĠAlcalde":12501,"Ġferrovi":12502,"ĠPola":12503,"ĠdescripciÃ³n":12504,"ades":12505,"turaciÃ³n":12506,"tle":12507,"ĠTribu":12508,"ĠBizkaia":12509,"Seguro":12510,"Ġgrasa":12511,"Ġbibliotecas":12512,"anal":12513,"Ġextend":12514,"Ġimagin":12515,"Ġejecutar":12516,"tivar":12517,"UEL":12518,"Ġconfund":12519,"ibe":12520,"Ġamericano":12521,"Ġenemigos":12522,"CuÃ¡n":12523,"Ġtrucos":12524,"Ġcompuesta":12525,"Ġcomprometido":12526,"ĠConferencia":12527,"ĠCara":12528,"ĠSuiza":12529,"ĠBien":12530,"ĠverÃ¡":12531,"Ġ(+":12532,"ĠMarc":12533,"ĠCF":12534,"Ġcuentos":12535,"Ġcombustible":12536,"Ġtengamos":12537,"Ãºmero":12538,"Ġcomparten":12539,"geciras":12540,"tez":12541,"Ġdescarta":12542,"Ġlimitado":12543,"ERN":12544,"Bajo":12545,"Ġ700":12546,"ĠCompostela":12547,"Ġexcur":12548,"ĠMAN":12549,"Ġmoneda":12550,"alizan":12551,"Ġsensibil":12552,"cÃº":12553,"ĠMarÃŃn":12554,"ĠUl":12555,"Ġinesper":12556,"Ġmensual":12557,"Ġpertenecen":12558,"Ġencier":12559,"ĠTras":12560,"PAR":12561,"Ġpintor":12562,"Ġinfin":12563,"god":12564,"Ġnombrado":12565,"Ġjuzgados":12566,"Ġdiplom":12567,"ĠHi":12568,"Ġcortar":12569,"Ġemocion":12570,"Ġprobado":12571,"Ġindispens":12572,"ager":12573,"Ġtax":12574,"Ġdescubre":12575,"Recibir":12576,"Ġpropici":12577,"ĠSha":12578,"jidad":12579,"derÃŃa":12580,"Ġdirectiva":12581,"Ġsoldados":12582,"Ġmierda":12583,"ĠideologÃŃa":12584,"Ġtru":12585,"Ġdestinadas":12586,"lib":12587,"Ġtratando":12588,"OB":12589,"Ġganadora":12590,"Ġurbana":12591,"ĠinÃ©di":12592,"Ġequivalente":12593,"Ġtitularidad":12594,"Ġolvidado":12595,"Vic":12596,"ĠPLA":12597,"ĠPadre":12598,"ĠNUE":12599,"hÃŃ":12600,"Catal":12601,"abar":12602,"cedentes":12603,"Ġexpresar":12604,"Ġescudo":12605,"Ġesenciales":12606,"Ġproductor":12607,"Ġsupuesta":12608,"ĠElectoral":12609,"ĠValÃ¨ncia":12610,"Ġhabitualmente":12611,"Ġfrutos":12612,"ĠhacÃŃan":12613,"ĠAlma":12614,"Fernando":12615,"hola":12616,"Ġgafas":12617,"ĠvocaciÃ³n":12618,"Ġmonitor":12619,"gulo":12620,"ymes":12621,"ĠRstica":12622,"ĠsaldrÃ¡":12623,"Ġdepender":12624,"ĠAcondicionado":12625,"orden":12626,"ĠgalardÃ³n":12627,"ĠElche":12628,"ĠTelefÃ³nica":12629,"Ġchu":12630,"Ġexigencias":12631,"Ġbebidas":12632,"Ġdirigidas":12633,"Ġpoquito":12634,"ĠRubÃ©n":12635,"bara":12636,"Ġgeneralmente":12637,"iliar":12638,"Necesitamos":12639,"gnos":12640,"Ã¡neo":12641,"ulares":12642,"ĠVivienda":12643,"Phone":12644,"Ġpatronal":12645,"Ġfascin":12646,"ĠGuer":12647,"Ġhijas":12648,"Ġrevisar":12649,"Ġ1999":12650,"Ġoficialmente":12651,"ĠexpulsiÃ³n":12652,"Ġlenguas":12653,"lÃ³n":12654,"Ġborde":12655,"camos":12656,"Ġdeberes":12657,"Ã±aki":12658,"Ġpermanencia":12659,"Ġvitam":12660,"Ġsatisfecho":12661,"ĠAvenida":12662,"Ġpidiendo":12663,"endos":12664,"financi":12665,"ĠCalvo":12666,"cionalizaciÃ³n":12667,"Nueva":12668,"Ġranking":12669,"ĠTVE":12670,"Ġtitulado":12671,"ĠsÃº":12672,"ĠpercepciÃ³n":12673,"David":12674,"Ġrecibiendo":12675,"tom":12676,"ĠMAS":12677,"ĠhipÃ³":12678,"Ġpresta":12679,"Fuentes":12680,"Ġsimpl":12681,"cing":12682,"ĠlÃ³gico":12683,"Ġministerio":12684,"Ã±ada":12685,"ĠFiesta":12686,"Ġdesarrollan":12687,"ĠDoctor":12688,"Ġsepa":12689,"Ġequipamiento":12690,"ĠcomercializaciÃ³n":12691,"ĠMorales":12692,"kar":12693,"uar":12694,"Ġdormitorios":12695,"Ġcaz":12696,"Ġvalenciana":12697,"Ġnavarro":12698,"Ġescapar":12699,"buen":12700,"Ġvariable":12701,"Ġprevios":12702,"Ġreligiosa":12703,"Ġtratan":12704,"Jes":12705,"Â±":12706,"69":12707,"ence":12708,"gipto":12709,"Grupo":12710,"Ġaviones":12711,"pur":12712,"ĠMÃ¡rquez":12713,"nd":12714,"Ġfoco":12715,"Ġtenis":12716,"Ġtarifa":12717,"Ġaccesible":12718,"Ġllamados":12719,"Ġmalague":12720,"Ġcontaba":12721,"ĠPeriod":12722,"astas":12723,"osidad":12724,"clado":12725,"Ġjustificar":12726,"Ġcreadores":12727,"TodavÃŃa":12728,"fac":12729,"ĠVida":12730,"Ġcabec":12731,"ĠÃºtiles":12732,"Ġrespectivos":12733,"Ġira":12734,"Ġligeramente":12735,"Sec":12736,"ARCEL":12737,"tumbres":12738,"Ġquir":12739,"Af":12740,"ĠViejo":12741,"Ġhumo":12742,"rÃ¡fica":12743,"ĠLevante":12744,"trac":12745,"ĠOurense":12746,"Comien":12747,"Mor":12748,"selo":12749,"Ġilegales":12750,"ĠdeterminaciÃ³n":12751,"Ġporta":12752,"Ġcaball":12753,"ĠcesiÃ³n":12754,"Ġgasolina":12755,"tenas":12756,"Ġrecuerdan":12757,"Ġinyec":12758,"jando":12759,"Ġcreador":12760,"Ġcostas":12761,"Ġpreparados":12762,"Ã³x":12763,"Ġrepartir":12764,"Ġsurge":12765,"PL":12766,"Ġfilas":12767,"Ġvisible":12768,"Ġpiscinas":12769,"udÃŃ":12770,"ĠBri":12771,"ĠpÃ¡":12772,"ĠIndepend":12773,"Ġclaridad":12774,"erio":12775,"ĠoÃŃdo":12776,"Pul":12777,"Ġpura":12778,"600":12779,"ĠGin":12780,"ĠMari":12781,"Ġcompatible":12782,"ÃŃgenes":12783,"ĠESO":12784,"Ġobserva":12785,"eres":12786,"izos":12787,"Ġisrael":12788,"Ġlegi":12789,"Ġnewslet":12790,"ĠdimensiÃ³n":12791,"Ġvuestros":12792,"Ġquedo":12793,"Ġsignos":12794,"Ġdedos":12795,"Ġapartamentos":12796,"Ġconvocar":12797,"Ġvengan":12798,"ĠExper":12799,"ĠSegu":12800,"ĠtraducciÃ³n":12801,"Ġinev":12802,"Ġinicialmente":12803,"ĠUU":12804,"QuizÃ¡":12805,"2012":12806,"ĠRock":12807,"rios":12808,"Ġ64":12809,"Ġconcretas":12810,"ĠCONS":12811,"Ġmigrantes":12812,"ĠFrontera":12813,"Publicar":12814,"ĠGib":12815,"dera":12816,"Ġraza":12817,"...,":12818,"ĠAbril":12819,"ĠIrlanda":12820,"ĠAlcor":12821,"ifa":12822,"Ġposiblemente":12823,"Ġconsecutivo":12824,"Ġfeminista":12825,"Va":12826,"entas":12827,"ĠolÃŃmp":12828,"Ġderiva":12829,"Ġverduras":12830,"Ġtos":12831,"Ġdona":12832,"Cul":12833,"Ġlomo":12834,"olio":12835,"ocos":12836,"Ġenfrentarse":12837,"Igles":12838,"tativa":12839,"Ġdestro":12840,"ĠatmÃ³s":12841,"ĠseparaciÃ³n":12842,"ĠalcanzÃ³":12843,"tudio":12844,"leos":12845,"Ġflamenco":12846,"Tube":12847,"ĠPastor":12848,"Ġpiedras":12849,"Ġcriminal":12850,"quita":12851,"Ġdisputa":12852,"Ġlatino":12853,"ĠseÃ±ales":12854,"ĠantigÃ¼":12855,"Ġconcurs":12856,"Ġsond":12857,"ĠMontes":12858,"Ġconcreta":12859,"ĠTU":12860,"ĠAVE":12861,"ĠFrank":12862,"Ġsuelos":12863,"ĠObs":12864,"lite":12865,"ĠBetis":12866,"ĠactÃºa":12867,"uss":12868,"Ġuniversitario":12869,"Ġpudiendo":12870,"Ġfall":12871,"Ġencla":12872,"ĠIrak":12873,"Ġfallecimiento":12874,"Ġcerrada":12875,"Ġcontinuo":12876,"mun":12877,"ĠconfÃŃa":12878,"fiel":12879,"Ġintercam":12880,"cero":12881,"Ġinflu":12882,"Ã±an":12883,"Ġfederal":12884,"Ġcemen":12885,"Ġoliva":12886,"Ġcrecido":12887,"Ġarquitecto":12888,"Ġtropas":12889,"Ã©ticas":12890,"Ġby":12891,"Ã¡gina":12892,"ĠseÃ±alan":12893,"uesos":12894,"rell":12895,"Precisamente":12896,"Encuentra":12897,"Mejor":12898,"Ġfrustr":12899,"Ġsuple":12900,"Ġfrontal":12901,"Ġunanimidad":12902,"Ġquem":12903,"Ġtradiciones":12904,"Consigue":12905,"ĠMemoria":12906,"Ġbesos":12907,"ĠperiÃ³dicos":12908,"Ġfichaje":12909,"ĠharÃŃa":12910,"rÃ©":12911,"truye":12912,"Ãºd":12913,"euro":12914,"ĠIntegr":12915,"Ġtestimonio":12916,"Ġentregado":12917,"Ġevaluar":12918,"Ġcamar":12919,"Ġagar":12920,"ĠvisualizaciÃ³n":12921,"Ġrelatos":12922,"ecÃŃan":12923,"Mus":12924,"ĠCifuentes":12925,"plu":12926,"inho":12927,"Ġpropaganda":12928,"ĠAgua":12929,"Publicado":12930,"tipos":12931,"iness":12932,"SÃ©":12933,"Ġaprendiendo":12934,"Ġrecurr":12935,"ĠGRAN":12936,"ĠcÃ©n":12937,"Ġoscur":12938,"Ġocurrir":12939,"Ġcomercios":12940,"HA":12941,"egaciÃ³n":12942,"ENTA":12943,"ĠrectificaciÃ³n":12944,"udencia":12945,"Ġsubven":12946,"Ġmanga":12947,"ĠcuantÃŃa":12948,"Ġcorresponden":12949,"Ġinmers":12950,"Ġtabaco":12951,"ĠpensiÃ³n":12952,"TRE":12953,"Ġpaisajes":12954,"Ġstock":12955,"ĠMont":12956,"Ġconlleva":12957,"ĠmuÃ±":12958,"Ġida":12959,"Introduzca":12960,"Ġfresco":12961,"esc":12962,"ĠbrasileÃ±o":12963,"Instal":12964,"uerte":12965,"-)":12966,"Ġsmartph":12967,"Ġfrutas":12968,"chen":12969,"Ġaccede":12970,"ĠAtresmedia":12971,"Ġadvir":12972,"mol":12973,"MaÃ±ana":12974,"Ġregresa":12975,"Ġdesfile":12976,"EP":12977,"Ġcasti":12978,"Ġestamp":12979,"Ġende":12980,"ĠHollywood":12981,"ĠEcu":12982,"ĠguiÃ³n":12983,"Ġdecora":12984,"Ġdelincu":12985,"Ġraro":12986,"ĠresultÃ³":12987,"Ġcrema":12988,"Ġobtiene":12989,"Ġgrabado":12990,"ĠLeon":12991,"Ġtrasladar":12992,"Ġenfermos":12993,"ĠCompe":12994,"Ġculo":12995,"Ġpeda":12996,"bran":12997,"Ġretorno":12998,"Ġesperado":12999,"ÃŃso":13000,"Ġdestinada":13001,"Ġencontrarse":13002,"Contac":13003,"ĠprovocÃ³":13004,"Puig":13005,"idra":13006,"Ġester":13007,"ieta":13008,"Ġevacu":13009,"Ġescritores":13010,"Ġadmir":13011,"Ġfelices":13012,"versiÃ³n":13013,"Da":13014,"ĠRich":13015,"Ġalcanz":13016,"Ġtraduc":13017,"Ġmedir":13018,"Ġdisfrute":13019,"Ġgiro":13020,"Ġcore":13021,"Ġcentrado":13022,"ĠWh":13023,"icÃ³p":13024,"ĠobtenciÃ³n":13025,"ĠadopciÃ³n":13026,"Ġasume":13027,"cionario":13028,"Ġdesgracia":13029,"Ġcaro":13030,"Ġregistrada":13031,"Ġrecons":13032,"vilÃ©s":13033,"Ġmarro":13034,"ciencia":13035,"Ġreen":13036,"ĠautomÃ¡ticamente":13037,"Ġincur":13038,"Ġvieron":13039,"ĠrepresiÃ³n":13040,"ann":13041,"Ġjugado":13042,"ander":13043,"ĠcrÃŃticos":13044,"web":13045,"Ġcincuenta":13046,"Ġmexicano":13047,"Ġsuficientemente":13048,"Ġconfec":13049,"yectos":13050,"laves":13051,"Ġfrecuente":13052,"Ġafiliados":13053,"Ġlibertades":13054,"onaldo":13055,"Ġtardes":13056,"Ġrepl":13057,"ĠCalderas":13058,"cau":13059,"Ġenfoc":13060,"Ġpelea":13061,"Ġagresiones":13062,"Ġneuro":13063,"tul":13064,"Ġsupervis":13065,"ogados":13066,"ĠAll":13067,"ĠEsperanza":13068,"Ġcomponente":13069,"ISMO":13070,"Ġdedo":13071,"colas":13072,"Ġcura":13073,"ĠABC":13074,"gs":13075,"Ġadquier":13076,"ĠMana":13077,"Ġpenas":13078,"Ġrapidez":13079,"ĠbebÃ©s":13080,"Ġprendas":13081,"Ġdescubrimiento":13082,"ĠControl":13083,"Ġprohibido":13084,"ĠGreg":13085,"INE":13086,"bres":13087,"dolfo":13088,"yD":13089,"Inicio":13090,"Ġinformativa":13091,"ĠCalder":13092,"Ġmoch":13093,"Ġfutbolistas":13094,"tilidad":13095,"Ġ57":13096,"ĠgalerÃŃa":13097,"Mir":13098,"zana":13099,"Ġgaraje":13100,"TEL":13101,"Ġaden":13102,"ĠcomprensiÃ³n":13103,"Ġcostumbres":13104,"Ġaprovechando":13105,"Ġpreciosa":13106,"Ġarranca":13107,"Ġmanejo":13108,"Ġchis":13109,"Ġencargada":13110,"Ġnormales":13111,"ĠDuero":13112,"boa":13113,"Ġbn":13114,"ĠabrirÃ¡":13115,"Ġtenia":13116,"59":13117,"ĠcerrÃ³":13118,"Ġplanteado":13119,"toles":13120,"Situ":13121,"ĠConfederaciÃ³n":13122,"Ġencantan":13123,"Ġdroga":13124,"Ġpongo":13125,"Ġorg":13126,"Ġfalso":13127,"Ġproductividad":13128,"Santa":13129,".'":13130,"eraciÃ³n":13131,"Ġlucro":13132,"Mod":13133,"Ġirse":13134,"ĠprohibiciÃ³n":13135,"ĠVel":13136,"ĠÃĵscar":13137,"Ġsubasta":13138,"ecieron":13139,"Ġdebut":13140,"ĠVila":13141,"ĠsustituciÃ³n":13142,"minas":13143,"Ġsubraya":13144,"Ġalturas":13145,"ĠSeÃ±ora":13146,"Ġderrib":13147,"Dicho":13148,"Ġdeseas":13149,"Ã³gicas":13150,"Ġpira":13151,"Ġconcurr":13152,"ĠGR":13153,"Ġpagan":13154,"Ġtoman":13155,"rejÃ³n":13156,"Ġmatricul":13157,"Ġnervios":13158,"Ġpuertos":13159,"eme":13160,"ilateral":13161,"Ġrusa":13162,"Ġsorprende":13163,"Ġposicionamiento":13164,"Ġpatrimon":13165,"ĠPueblo":13166,"Er":13167,"acciones":13168,"ĠAndre":13169,"ĠmontaÃ±as":13170,"ĠMate":13171,"Ġdebu":13172,"ĠÃļ":13173,"Ġinal":13174,"ĠMaster":13175,"Conse":13176,"imento":13177,"Ġsubido":13178,"Ġnovelas":13179,"ĠComprom":13180,"ĠcancelaciÃ³n":13181,"ford":13182,"ĠTre":13183,"ĠTam":13184,"ĠÃ¡rbi":13185,"ĠexplosiÃ³n":13186,"edio":13187,"fan":13188,"Ġvisibilidad":13189,"Selec":13190,"Ġsacado":13191,"ĠBlas":13192,"peta":13193,"ĠJean":13194,"ĠFiestas":13195,"CAR":13196,"ĠAcces":13197,"ĠdemÃ³cra":13198,"tri":13199,"ICOS":13200,"Quien":13201,"inda":13202,"ĠTres":13203,"Ġaconsej":13204,"Ġarrancar":13205,"Ġpusieron":13206,"ÃĤ":13207,"yu":13208,"ĠGem":13209,"ARCELONA":13210,"Ġaspirantes":13211,"Claro":13212,"uria":13213,"ĠAutÃ³nomas":13214,"Ġcaballos":13215,"ĠRubio":13216,"Ġeducativas":13217,"Ġcostumbre":13218,"pued":13219,"trop":13220,"Ġespectador":13221,"Ġsupervivencia":13222,"Ġpensaba":13223,"Ġinsis":13224,"ĠFA":13225,"Ġconvirti":13226,"Ġsuscribir":13227,"Ġnegros":13228,"Ġcristianos":13229,"Ġroto":13230,"puede":13231,"conf":13232,"pool":13233,"Empresa":13234,"otras":13235,"raba":13236,"MC":13237,"Ġcuriosidad":13238,"ĠUniversidades":13239,"ÃĳOS":13240,"ĠRecursos":13241,"tase":13242,"ĠintroducciÃ³n":13243,"Ġotorga":13244,"ineo":13245,"prar":13246,"voz":13247,"Ġagreg":13248,"ĠPrensa":13249,"Ġdupl":13250,"Ġ54":13251,"Ġperdiendo":13252,"ĠSIN":13253,"icto":13254,"Ġlicencias":13255,"Ġchef":13256,"cena":13257,"ĠtenÃŃamos":13258,"Trabaj":13259,"chu":13260,"Ġ51":13261,"ĠAtlÃ¡n":13262,"culas":13263,"ĠEmergencias":13264,"ĠOpera":13265,"Blog":13266,"gil":13267,"Ġcole":13268,"Ġpagina":13269,"ĠfarmacÃ©u":13270,"Ġcotidiana":13271,"Ġrenunciar":13272,"zones":13273,"Ġatraer":13274,"Ġvendido":13275,"ĠparticipÃ³":13276,"illado":13277,"ĠmarcÃ³":13278,"ĠfrÃŃa":13279,"So":13280,"Ġasistido":13281,"ĠVerde":13282,"ĠcamiÃ³n":13283,"Ġdijeron":13284,"tamarÃŃa":13285,"tions":13286,"Ġseno":13287,"xx":13288,"eth":13289,"Ġlimita":13290,"Ġbolsillo":13291,"Ġmapas":13292,"Ġpalo":13293,"Ġpromocionar":13294,"Ġfla":13295,"Ġinstancia":13296,"ĠPel":13297,"ĠsatÃ©":13298,"toro":13299,"indic":13300,"ĠmÃŃo":13301,"Ġhabiendo":13302,"Ġfruta":13303,"ĠPod":13304,"Ed":13305,"Ġbancaria":13306,"ĠFis":13307,"obos":13308,"bados":13309,"Ġcompatibilidad":13310,"Ġao":13311,"Ġreportaje":13312,"trados":13313,"ĠImpuesto":13314,"ĠcapÃŃtulos":13315,"orr":13316,"Ġcomidas":13317,"Ġvenga":13318,"Ġhidra":13319,"Ġfuturas":13320,"ĠvenÃŃa":13321,"Ġcomponen":13322,"Ġjuegan":13323,"Ġexquis":13324,"Ġpresentamos":13325,"tambiÃ©n":13326,"Aprend":13327,"eus":13328,"Ev":13329,"ĠpatrÃ³n":13330,"ĠREG":13331,"oli":13332,"Ġfilm":13333,"yan":13334,"Ġestudiando":13335,"Comentarios":13336,"Ġsexta":13337,"die":13338,"Ġaber":13339,"ĠBienestar":13340,"ĠirÃ¡n":13341,"ĠVerdad":13342,"Ġsentidos":13343,"Ġoy":13344,"Ġplay":13345,"vertir":13346,"61":13347,"Ġgay":13348,"Ġapasion":13349,"Ġsupuso":13350,"ĠingenierÃŃa":13351,"Ġforos":13352,"eal":13353,"ĠFra":13354,"Posteriormente":13355,"Ġmolesti":13356,"Granada":13357,"Ġsexto":13358,"Ġcolumna":13359,"Ġdiarias":13360,"Ġauten":13361,"Ġaclarar":13362,"inero":13363,"Ġproponer":13364,"Ġmail":13365,"tativo":13366,"NG":13367,"Ġrepuestos":13368,"Ã¡micas":13369,"Ġdesesper":13370,"Ġnor":13371,"ĠJU":13372,"ikel":13373,"ĠCompaÃ±ÃŃa":13374,"ĠcuÃ¡nto":13375,"Ġplantear":13376,"ĠAnim":13377,"Ġconexiones":13378,"Ġmedalla":13379,"ĠGU":13380,"Record":13381,"Ġdespues":13382,"Especial":13383,"Ġlleve":13384,"EMOS":13385,"fono":13386,"Ġadministrador":13387,"Ġcaracteriza":13388,"Ġbronce":13389,"Ġchina":13390,"alde":13391,"ĠintÃ©rpre":13392,"Ġinternos":13393,"Ġsufrimiento":13394,"Ġfacturas":13395,"Ġmaestros":13396,"Ġsiglas":13397,"ĠRelaciones":13398,"ĠPaseo":13399,"Ġspam":13400,"Ġexal":13401,"Ġavenida":13402,"ĠhelicÃ³p":13403,"Ġsemanal":13404,"ĠJavaS":13405,"ĠAv":13406,"79":13407,"plutense":13408,"ĠRÃ©gimen":13409,"gundo":13410,"Inf":13411,"Ġgua":13412,"Ġtrate":13413,"Ġinterpretar":13414,"ĠSamsung":13415,"ernam":13416,"Ġcrean":13417,"ĠLGT":13418,"Ġguerras":13419,"roso":13420,"ĠatmÃ³sfera":13421,"Ġelevada":13422,"Ġrenovar":13423,"ĠJavaScript":13424,"ĠlanzÃ³":13425,"Ġdoy":13426,"ÃŃtico":13427,"grimas":13428,"Ġacoger":13429,"Ġdeterioro":13430,"jalÃ¡":13431,"Ġmirando":13432,"Ġfijar":13433,"800":13434,"ĠcomentÃ³":13435,"Ġilustraciones":13436,"Ġimpid":13437,"Ġfri":13438,"Ġpotenci":13439,"ĠGrande":13440,"Ġavanza":13441,"ĠLec":13442,"yr":13443,"Ġgeneran":13444,"Ġespon":13445,"americano":13446,"Ġincumplimiento":13447,"Ġsatisfacer":13448,"Ġceder":13449,"jetivo":13450,"ĠCuerpo":13451,"ĠelÃ©ctricas":13452,"ĠSac":13453,"Ġreglamento":13454,"Ġtocado":13455,"Ġgraba":13456,"lavega":13457,"Ġreyes":13458,"quÃ©s":13459,"ĠMercan":13460,"ARIOS":13461,"Ġcomar":13462,"Ġdenominada":13463,"Ġconozco":13464,"caciÃ³n":13465,"jana":13466,"ĠautomÃ¡tica":13467,"!.":13468,"Ġagred":13469,"Ġinmobiliario":13470,"ĠviolaciÃ³n":13471,"2009":13472,"produc":13473,"def":13474,"Ġsemestre":13475,"Ġpasadas":13476,"Ġcomplejos":13477,"Ġpresidentes":13478,"Ġconvenios":13479,"ĠestratÃ©gico":13480,"Ġgato":13481,"Ġarco":13482,"americana":13483,"Ġlargos":13484,"Ġapp":13485,"URA":13486,"TUR":13487,"ĠtecnolÃ³gicos":13488,"Ġllamamiento":13489,"Ġdespleg":13490,"ĠIS":13491,"Ġconsistorio":13492,"ĠdirÃŃa":13493,"Ġdesalo":13494,"sasuna":13495,"On":13496,"Ġdiagnos":13497,"Ġ56":13498,"ĠValverde":13499,"Ġcomienzan":13500,"ĠMotor":13501,"Ġagricultores":13502,"Ġazules":13503,"ĠCalifornia":13504,"PER":13505,"Ġconsens":13506,"ĠBomb":13507,"Ġeuskera":13508,"ĠmÃŃa":13509,"ĠLara":13510,"Ġgratuitos":13511,"Ġcese":13512,"ĠVin":13513,"Ġpart":13514,"Rema":13515,"ĠInte":13516,"Ġnecesariamente":13517,"ĠEmprend":13518,"Ġimpuso":13519,"ĠcrÃ³nica":13520,"ĠLatino":13521,"Ġapellidos":13522,"Ġcomplementos":13523,"ucar":13524,"ĠGlobal":13525,"Ġintegrada":13526,"Ġmural":13527,"adir":13528,"Ġrelativo":13529,"istentes":13530,"Ġensayos":13531,"control":13532,"ĠTab":13533,"Ej":13534,"ĠcentÃŃ":13535,"ĠporterÃŃa":13536,"Ġdeterminada":13537,"cÃŃas":13538,"noticias":13539,"ĠMO":13540,"ĠNegro":13541,"Ġchal":13542,"ĠconfirmaciÃ³n":13543,"EstÃ¡n":13544,"Ġincidente":13545,"Ġreunir":13546,"Ġcerrados":13547,"Ġrefres":13548,"Sim":13549,"Servicios":13550,"Ġmaravilloso":13551,"ĠSecundaria":13552,"ĠdarÃ¡n":13553,"ĠJuliÃ¡n":13554,"ipuz":13555,"Ġfibra":13556,"Ġcro":13557,"Ġcapitalismo":13558,"ĠMedina":13559,"Ġrodaje":13560,"Ġsindical":13561,"Ġconforman":13562,"Ġganando":13563,"low":13564,"Ġaliv":13565,"minos":13566,"ĠacompaÃ±a":13567,"Ġfren":13568,"Ġllevarse":13569,"ĠVOX":13570,"inde":13571,"CIONAL":13572,"Ġreivindica":13573,"Ġhermoso":13574,"icarÃ¡":13575,"ĠorÃŃgenes":13576,"ĠperfecciÃ³n":13577,"inÃ³":13578,"Ġ68":13579,"Ġcopiando":13580,"FC":13581,"Ã¡sico":13582,"Ġacorde":13583,"Ġentretenimiento":13584,"ĠTelevisiÃ³n":13585,"zob":13586,"Ġ72":13587,"PresentaciÃ³n":13588,"poli":13589,"Ġdesconocido":13590,"ĠAlfredo":13591,"Ã¡rma":13592,"into":13593,"ĠgrÃ¡fica":13594,"EO":13595,"bel":13596,"Ġrequieren":13597,"Ã©cdo":13598,"ĠmadrileÃ±os":13599,"emo":13600,"Ġculturas":13601,"acin":13602,"Ġtrabajadoras":13603,"Cos":13604,"ĠFun":13605,"GUN":13606,"ĠPUE":13607,"Hos":13608,"Ġconstancia":13609,"Ġ99":13610,"ÃŃnas":13611,"ĠComple":13612,"ĠPsic":13613,"ns":13614,"ĠNar":13615,"ombro":13616,"Ellos":13617,"Ġvencer":13618,"Ġgrabar":13619,"ĠComis":13620,"Ġcomplejidad":13621,"Ġ1998":13622,"aren":13623,"Ġconstantemente":13624,"Ġacondi":13625,"Em":13626,"ĠStreet":13627,"Ġampli":13628,"Ġobligados":13629,"ĠGarzÃ³n":13630,"dero":13631,"Ġaprendido":13632,"alcaba":13633,"Ġatrav":13634,"ĠcÃ¡lculo":13635,"ĠNÃºÃ±ez":13636,"ĠinspiraciÃ³n":13637,"HabrÃ¡":13638,"queo":13639,"mala":13640,"Ġenveje":13641,"Ġjusta":13642,"TÃº":13643,"ĠcambiÃ³":13644,"IJ":13645,"Ġoposi":13646,"nova":13647,"ĠescÃ¡ndalo":13648,"Proyecto":13649,"ĠfacturaciÃ³n":13650,"ilas":13651,"ĠLU":13652,"Ġbis":13653,"Ġcabello":13654,"ĠTIC":13655,"ĠEspaa":13656,"ĠsimultÃ¡n":13657,"ĠLeganÃ©s":13658,"ezo":13659,"Rivera":13660,"Ġ53":13661,"Ġbosques":13662,"Ġdefecto":13663,"sub":13664,"Ġdisparo":13665,"Llev":13666,"Ġintenciones":13667,"Ġhipoteca":13668,"Ġansiedad":13669,"Ġcomplemento":13670,"adar":13671,"Ġrepor":13672,"Ġpartidas":13673,"Ġestudia":13674,"Ã³metro":13675,"oblaciÃ³n":13676,"Ġvestir":13677,"Ġenfrentamiento":13678,"Ġexpone":13679,"Ġtraje":13680,"Ġ(-":13681,"nica":13682,"Manuel":13683,"mÃŃn":13684,"amÃ¡":13685,"ĠSuecia":13686,"ĠinstrucciÃ³n":13687,"dades":13688,"ach":13689,"Ġreino":13690,"Ġsensa":13691,"Ġlimpio":13692,"ĠacompaÃ±ados":13693,"Ġconmemora":13694,"Ġpaciencia":13695,"ĠestÃ¡ndar":13696,"Ġamparo":13697,"erica":13698,"Ġdisponemos":13699,"Ġarreglo":13700,"Ġatacar":13701,"tate":13702,"Ġinterven":13703,"Ġpantallas":13704,";)":13705,"claje":13706,"ĠEu":13707,"Ġdivertida":13708,"Ġengan":13709,"Ġquedando":13710,"Ġalemanes":13711,"Ġsalva":13712,"ĠLuz":13713,"ĠObras":13714,"Ġindependientemente":13715,"ADAS":13716,"Ġamarilla":13717,"ĠportÃ¡til":13718,"Ġke":13719,"Ġambul":13720,"itenci":13721,"TURA":13722,"ĠGonzalo":13723,"arto":13724,"Fer":13725,"Ġasom":13726,"ĠlÃº":13727,"citos":13728,"ecretario":13729,"ierro":13730,"Ġimpartir":13731,"Ġpbl":13732,"ĠtÃŃo":13733,"tegi":13734,"win":13735,"ĠenseÃ±ar":13736,"Ġconvocatorias":13737,"Ġadecuadas":13738,"ĠextraÃ±a":13739,"ĠTorn":13740,"ladas":13741,"Ġminis":13742,"Ġpolitica":13743,"Ġsuscrip":13744,"Ġmasiva":13745,"Ġfuncional":13746,"Ġfortuna":13747,"Escrito":13748,"Ġverte":13749,"oba":13750,"Ġplenamente":13751,"identes":13752,"Ġadelantado":13753,"gata":13754,"ĠComplutense":13755,"Ġlados":13756,"Ġhipotecas":13757,"Ġreflexionar":13758,"Ġmuertes":13759,"floristeria":13760,"querÃŃa":13761,"Ġgentes":13762,"Reservados":13763,"ĠRonaldo":13764,"ĠArchivo":13765,"portivo":13766,"Ġsincer":13767,"ĠGom":13768,"Ġguardias":13769,"Ġevita":13770,"ragonÃ©s":13771,"Ġpisto":13772,"ĠESTA":13773,"Ġbilletes":13774,"Has":13775,"ĠAce":13776,"ĠConde":13777,"ĠlocalizaciÃ³n":13778,"onÃ©s":13779,"Lleg":13780,"vir":13781,"cate":13782,"Ġdespedida":13783,"Ġciclista":13784,"Via":13785,"Super":13786,"Ġsumado":13787,"Ġacercarse":13788,"ĠcontinÃºan":13789,"Ġoch":13790,"Ġcambiando":13791,"ĠSOBRE":13792,"Pens":13793,"ĠofreciÃ³":13794,"Ġarag":13795,"Ġacor":13796,"guero":13797,"Ġdescal":13798,"@@@@@@@@":13799,"bul":13800,"ĠCI":13801,"Ġobligatorio":13802,"ĠMADRID":13803,"ĠEmpresarial":13804,"Ġencontraban":13805,"Ġple":13806,"ĠSof":13807,"Mad":13808,"ĠCampus":13809,"Ġlamentado":13810,"ĠMaduro":13811,"Nuevo":13812,"ĠCaballero":13813,"idora":13814,"Ġsujetos":13815,"Ġsobrevivir":13816,"Ġdetener":13817,"ĠSelecciÃ³n":13818,"ĠÃ©tica":13819,"ĠGuin":13820,"Ġrespira":13821,"Ġdetallado":13822,"logÃŃas":13823,"ĠcÃ³moda":13824,"Ġinad":13825,"ĠBaja":13826,"Ġproducirse":13827,"ĠprÃ¡ctico":13828,"Fotos":13829,"Ġtemor":13830,"ĠSporting":13831,"Ġlimpiar":13832,"Ġhorizon":13833,"Ġmagistrado":13834,"ĠFÃ³rmula":13835,"ahora":13836,"Ġencam":13837,"Ġalimento":13838,"GAR":13839,"Ġducha":13840,"Ġjuguetes":13841,"gela":13842,"Ġrestring":13843,"jam":13844,"Ġrazonable":13845,"ĠJornada":13846,"ĠAbas":13847,"ink":13848,"ĠBM":13849,"ĠCapital":13850,"ificos":13851,"Ġdespido":13852,"Ġvivos":13853,"ĠtÃŃ":13854,"Ġrubia":13855,"ĠTerritorial":13856,"ĠmarroquÃŃ":13857,"ĠSel":13858,"ĠEgipto":13859,"Ġlocalizar":13860,"Ġdespro":13861,"Ġexpuesto":13862,"donde":13863,"abul":13864,"issa":13865,"Ġdemuestran":13866,"Ġquie":13867,"Ġmobiliario":13868,"ĠdesarrollarÃ¡":13869,"dea":13870,"Ġvestidos":13871,"ologistas":13872,"ĠCÃ¡n":13873,"Ġinterfa":13874,"Ġ74":13875,"ĠSco":13876,"Ġmerecen":13877,"tiembre":13878,"Ġarru":13879,"ĠantigÃ¼edad":13880,"Ġnatal":13881,"Ġnovio":13882,"Ġrobar":13883,"ĠconfirmÃ³":13884,"Ġcontag":13885,"Ġclaros":13886,"ĠEfe":13887,"Ġproveedor":13888,"cultura":13889,"ĠTributaria":13890,"Ġsentimos":13891,
[...]
